<unk>	0
<s>	0
</s>	0
<pad>	0
<CLS>	0
<SEP>	0
<EOD>	0
<MASK>	0

	0
<llm-code>	0
</llm-code>	0
<llm-code-output>	0
</llm-code-output>	0
<0x00>	0
<0x01>	0
<0x02>	0
<0x03>	0
<0x04>	0
<0x05>	0
<0x06>	0
<0x07>	0
<0x08>	0
<0x09>	0
<0x0A>	0
<0x0B>	0
<0x0C>	0
<0x0D>	0
<0x0E>	0
<0x0F>	0
<0x10>	0
<0x11>	0
<0x12>	0
<0x13>	0
<0x14>	0
<0x15>	0
<0x16>	0
<0x17>	0
<0x18>	0
<0x19>	0
<0x1A>	0
<0x1B>	0
<0x1C>	0
<0x1D>	0
<0x1E>	0
<0x1F>	0
<0x20>	0
<0x21>	0
<0x22>	0
<0x23>	0
<0x24>	0
<0x25>	0
<0x26>	0
<0x27>	0
<0x28>	0
<0x29>	0
<0x2A>	0
<0x2B>	0
<0x2C>	0
<0x2D>	0
<0x2E>	0
<0x2F>	0
<0x30>	0
<0x31>	0
<0x32>	0
<0x33>	0
<0x34>	0
<0x35>	0
<0x36>	0
<0x37>	0
<0x38>	0
<0x39>	0
<0x3A>	0
<0x3B>	0
<0x3C>	0
<0x3D>	0
<0x3E>	0
<0x3F>	0
<0x40>	0
<0x41>	0
<0x42>	0
<0x43>	0
<0x44>	0
<0x45>	0
<0x46>	0
<0x47>	0
<0x48>	0
<0x49>	0
<0x4A>	0
<0x4B>	0
<0x4C>	0
<0x4D>	0
<0x4E>	0
<0x4F>	0
<0x50>	0
<0x51>	0
<0x52>	0
<0x53>	0
<0x54>	0
<0x55>	0
<0x56>	0
<0x57>	0
<0x58>	0
<0x59>	0
<0x5A>	0
<0x5B>	0
<0x5C>	0
<0x5D>	0
<0x5E>	0
<0x5F>	0
<0x60>	0
<0x61>	0
<0x62>	0
<0x63>	0
<0x64>	0
<0x65>	0
<0x66>	0
<0x67>	0
<0x68>	0
<0x69>	0
<0x6A>	0
<0x6B>	0
<0x6C>	0
<0x6D>	0
<0x6E>	0
<0x6F>	0
<0x70>	0
<0x71>	0
<0x72>	0
<0x73>	0
<0x74>	0
<0x75>	0
<0x76>	0
<0x77>	0
<0x78>	0
<0x79>	0
<0x7A>	0
<0x7B>	0
<0x7C>	0
<0x7D>	0
<0x7E>	0
<0x7F>	0
<0x80>	0
<0x81>	0
<0x82>	0
<0x83>	0
<0x84>	0
<0x85>	0
<0x86>	0
<0x87>	0
<0x88>	0
<0x89>	0
<0x8A>	0
<0x8B>	0
<0x8C>	0
<0x8D>	0
<0x8E>	0
<0x8F>	0
<0x90>	0
<0x91>	0
<0x92>	0
<0x93>	0
<0x94>	0
<0x95>	0
<0x96>	0
<0x97>	0
<0x98>	0
<0x99>	0
<0x9A>	0
<0x9B>	0
<0x9C>	0
<0x9D>	0
<0x9E>	0
<0x9F>	0
<0xA0>	0
<0xA1>	0
<0xA2>	0
<0xA3>	0
<0xA4>	0
<0xA5>	0
<0xA6>	0
<0xA7>	0
<0xA8>	0
<0xA9>	0
<0xAA>	0
<0xAB>	0
<0xAC>	0
<0xAD>	0
<0xAE>	0
<0xAF>	0
<0xB0>	0
<0xB1>	0
<0xB2>	0
<0xB3>	0
<0xB4>	0
<0xB5>	0
<0xB6>	0
<0xB7>	0
<0xB8>	0
<0xB9>	0
<0xBA>	0
<0xBB>	0
<0xBC>	0
<0xBD>	0
<0xBE>	0
<0xBF>	0
<0xC0>	0
<0xC1>	0
<0xC2>	0
<0xC3>	0
<0xC4>	0
<0xC5>	0
<0xC6>	0
<0xC7>	0
<0xC8>	0
<0xC9>	0
<0xCA>	0
<0xCB>	0
<0xCC>	0
<0xCD>	0
<0xCE>	0
<0xCF>	0
<0xD0>	0
<0xD1>	0
<0xD2>	0
<0xD3>	0
<0xD4>	0
<0xD5>	0
<0xD6>	0
<0xD7>	0
<0xD8>	0
<0xD9>	0
<0xDA>	0
<0xDB>	0
<0xDC>	0
<0xDD>	0
<0xDE>	0
<0xDF>	0
<0xE0>	0
<0xE1>	0
<0xE2>	0
<0xE3>	0
<0xE4>	0
<0xE5>	0
<0xE6>	0
<0xE7>	0
<0xE8>	0
<0xE9>	0
<0xEA>	0
<0xEB>	0
<0xEC>	0
<0xED>	0
<0xEE>	0
<0xEF>	0
<0xF0>	0
<0xF1>	0
<0xF2>	0
<0xF3>	0
<0xF4>	0
<0xF5>	0
<0xF6>	0
<0xF7>	0
<0xF8>	0
<0xF9>	0
<0xFA>	0
<0xFB>	0
<0xFC>	0
<0xFD>	0
<0xFE>	0
<0xFF>	0
、	-3.2545
。	-3.43527
の	-3.43956
▁	-3.71188
を	-3.89155
に	-3.95738
が	-4.02817
は	-4.04891
で	-4.56657
と	-4.63244
1	-5.00461
0	-5.06449
も	-5.09818
い	-5.24264
2	-5.28035
.	-5.29723
」	-5.33481
な	-5.36094
,	-5.39101
から	-5.53301
)	-5.53772
(	-5.54924
る	-5.60845
「	-5.64667
s	-5.67718
て	-5.73679
人	-5.76867
▁the	-5.78808
する	-5.81612
です	-5.83466
3	-5.84485
って	-5.85845
し	-5.87778
や	-5.96655
た	-6.02454
して	-6.02578
した	-6.06175
・	-6.09126
5	-6.11965
ます	-6.1423
!	-6.15466
年	-6.21042
4	-6.22277
▁of	-6.24403
その	-6.27716
お	-6.28424
的	-6.32766
か	-6.33831
方	-6.34683
_	-6.36013
という	-6.36941
った	-6.38644
9	-6.38773
▁and	-6.39701
-	-6.41967
日	-6.42557
この	-6.43142
ない	-6.47495
:	-6.47821
6	-6.47824
?	-6.48415
出	-6.50595
には	-6.50745
8	-6.51551
でも	-6.55196
場	-6.56819
者	-6.57002
7	-6.57402
▁「	-6.60055
私	-6.60297
など	-6.60925
▁to	-6.61267
今	-6.64028
行	-6.65743
月	-6.65924
では	-6.70291
思	-6.70898
く	-6.71469
▁in	-6.72717
事	-6.74287
大	-6.75644
見	-6.75863
前	-6.76342
中	-6.77774
時	-6.77913
す	-6.79668
▁a	-6.80649
として	-6.8397
ある	-6.85975
合	-6.86876
ました	-6.86934
う	-6.8758
まで	-6.88817
回	-6.9181
思い	-6.91932
自分	-6.92032
だ	-6.9347
力	-6.9462
性	-6.96926
後	-6.97445
ed	-6.9803
手	-6.99717
目	-7.03276
/	-7.03467
考え	-7.04436
分	-7.0539
である	-7.07471
々	-7.08075
ing	-7.09201
子	-7.09333
入	-7.09699
▁(	-7.10418
要	-7.12312
実	-7.13128
感じ	-7.15606
気	-7.15645
作	-7.15727
り	-7.1576
され	-7.17512
全	-7.18082
体	-7.18675
している	-7.19114
何	-7.19725
日本	-7.21707
言	-7.21765
話	-7.21974
良	-7.22154
感	-7.22456
時間	-7.23288
さ	-7.2352
発	-7.2416
物	-7.24808
多	-7.24816
会	-7.24971
外	-7.25189
用	-7.25688
ー	-7.2625
▁=	-7.2824
にも	-7.28774
っている	-7.29675
一	-7.29859
だと	-7.302
様	-7.30527
～	-7.30784
さん	-7.30968
だった	-7.31223
します	-7.32867
金	-7.3303
本	-7.33521
『	-7.3401
▁is	-7.36726
"	-7.36893
必	-7.37409
』	-7.39276
いた	-7.39324
とか	-7.40297
思う	-7.40312
ている	-7.41021
上	-7.41342
数	-7.41443
ly	-7.41468
これ	-7.41545
また	-7.42016
間	-7.43442
ると	-7.44414
家	-7.44438
だけ	-7.45799
▁for	-7.46122
x	-7.46147
、「	-7.46212
来	-7.4652
持	-7.46651
ね	-7.4671
国	-7.46985
がある	-7.47017
いて	-7.47637
された	-7.47795
について	-7.48663
生	-7.49072
点	-7.4929
そして	-7.49782
より	-7.50132
書	-7.50612
度	-7.50627
'	-7.5138
内	-7.51686
先	-7.51717
でした	-7.52299
の中	-7.52682
ら	-7.53369
へ	-7.53584
なら	-7.53913
期	-7.53957
使	-7.54096
・・・	-7.55114
んで	-7.56623
そう	-7.57621
しました	-7.58433
こと	-7.60301
化	-7.60774
む	-7.61077
y	-7.61405
心	-7.62376
当	-7.627
戦	-7.63791
ですが	-7.63799
利	-7.64691
される	-7.64954
▁that	-7.65599
食べ	-7.67267
意	-7.67704
ご	-7.67934
▁▁▁▁	-7.6854
食	-7.68923
円	-7.69327
問題	-7.69628
▁▁▁▁▁▁▁▁	-7.71023
つ	-7.71063
開	-7.71289
定	-7.71625
と言	-7.72035
▁with	-7.72275
店	-7.72826
部	-7.73502
できる	-7.73563
面	-7.73729
になる	-7.74104
好き	-7.74196
下	-7.74247
色	-7.74263
新	-7.74456
知	-7.75204
られ	-7.75214
ほど	-7.75239
達	-7.77319
仕事	-7.77699
長	-7.7771
d	-7.77761
同じ	-7.78609
よ	-7.79148
んだ	-7.79459
出来	-7.79483
際	-7.7958
多く	-7.80148
み	-7.80203
記	-7.80213
られる	-7.80213
水	-7.8132
不	-7.81605
彼	-7.81606
▁The	-7.8252
▁as	-7.82832
もう	-7.8346
足	-7.83501
語	-7.83534
地	-7.83829
所	-7.84039
他	-7.84435
なので	-7.84437
経	-7.84511
男	-7.85375
明	-7.8558
ような	-7.85638
笑	-7.86245
解	-7.8627
\	-7.87117
少し	-7.87214
それ	-7.87234
口	-7.87261
名	-7.87575
だから	-7.88305
ています	-7.88766
主	-7.89673
世界	-7.89773
価	-7.8981
ように	-7.89839
▁by	-7.90312
ながら	-7.90634
大き	-7.90889
高	-7.91031
れば	-7.91038
現	-7.91092
=	-7.91698
しています	-7.91725
想	-7.92112
があります	-7.92985
無	-7.93154
加	-7.94031
...	-7.949
くらい	-7.95655
参	-7.95849
残	-7.95869
動	-7.96968
変	-7.97807
顔	-7.98093
可能	-7.98704
法	-7.99077
女性	-7.99105
関係	-7.99154
結	-8.00054
俺	-8.00428
本当	-8.00568
特	-8.00719
格	-8.01129
員	-8.01423
通	-8.01719
代	-8.01802
車	-8.02057
職	-8.0265
以上	-8.02695
しかし	-8.02813
確	-8.03079
これは	-8.03639
市	-8.03985
違	-8.04005
線	-8.04012
情報	-8.04065
▁on	-8.04163
によって	-8.04484
同	-8.04558
ですね	-8.04984
悪	-8.05078
っていた	-8.05297
親	-8.05321
身	-8.05946
言う	-8.06016
値	-8.06479
受け	-8.07224
なく	-8.07881
そんな	-8.08238
制	-8.0825
すると	-8.08293
愛	-8.08842
声	-8.08983
成	-8.0906
%	-8.09209
への	-8.09493
着	-8.09655
単	-8.10002
っています	-8.10015
画	-8.11241
集	-8.11379
▁from	-8.11427
ため	-8.1143
次	-8.11816
▁was	-8.122
き	-8.12286
別	-8.12486
頭	-8.12571
機	-8.13445
よう	-8.13901
今日	-8.14071
元	-8.14213
買	-8.14495
強	-8.14665
生活	-8.14699
たち	-8.14969
会社	-8.14976
▁or	-8.15229
でしょうか	-8.1534
品	-8.15399
られた	-8.15622
▁この	-8.16052
観	-8.16434
言葉	-8.16711
風	-8.16797
かった	-8.16855
以	-8.17142
素	-8.17279
なんて	-8.17478
よく	-8.17512
待	-8.17609
われ	-8.17872
▁be	-8.18225
週	-8.18485
見え	-8.1857
氏	-8.1862
社	-8.18848
入れ	-8.19085
聞	-8.1923
楽し	-8.19486
による	-8.19504
万	-8.19594
▁"	-8.19823
▁are	-8.19857
されている	-8.20442
始め	-8.2104
時代	-8.21346
意味	-8.21635
e	-8.21646
有	-8.21697
友	-8.22136
帰	-8.2216
音	-8.2231
番	-8.22344
見て	-8.22469
しか	-8.22588
頃	-8.22774
像	-8.22965
それは	-8.23197
認	-8.23344
に入	-8.23574
人間	-8.24161
歳	-8.24376
気が	-8.24694
[	-8.24718
決	-8.24899
のですが	-8.25213
でしょう	-8.25227
誰	-8.25416
していた	-8.25457
説	-8.25879
側	-8.25922
写真	-8.25974
構	-8.26278
文	-8.26317
安	-8.26329
等	-8.26387
得	-8.26417
時に	-8.26709
僕	-8.26735
味	-8.26809
県	-8.26885
道	-8.26935
種	-8.27308
転	-8.27503
たい	-8.27834
ちょっと	-8.27933
方法	-8.27939
約	-8.27961
進	-8.27967
夫	-8.28207
なかった	-8.28291
続け	-8.28486
えば	-8.28513
信	-8.28625
式	-8.29509
います	-8.29606
ず	-8.29634
学	-8.30016
?」	-8.30036
最近	-8.30045
初	-8.30081
野	-8.30194
半	-8.30414
子供	-8.30468
▁#	-8.30499
理	-8.30575
いる	-8.31124
ていた	-8.31141
最	-8.31277
行く	-8.31408
読	-8.31537
識	-8.31722
直	-8.31777
いい	-8.32327
相手	-8.32532
場所	-8.32534
気持ち	-8.32561
質	-8.32589
皆	-8.33018
]	-8.3315
例	-8.33202
結果	-8.33242
反	-8.33341
然	-8.33476
さんの	-8.337
たら	-8.3412
らない	-8.34624
権	-8.34707
題	-8.34847
▁今	-8.35283
だけで	-8.35381
もの	-8.35644
位	-8.35694
朝	-8.36012
選	-8.36355
死	-8.36684
情	-8.36765
曲	-8.36804
空	-8.36925
活	-8.37133
対	-8.37227
とも	-8.37362
形	-8.375
のように	-8.37831
夜	-8.38149
効果	-8.3816
山	-8.38281
海	-8.384
社会	-8.38703
▁this	-8.39382
ただ	-8.39454
再	-8.3968
高い	-8.39761
立	-8.40304
になります	-8.40779
▁it	-8.41034
▁▁▁▁▁▁▁▁▁▁▁▁	-8.41092
になって	-8.41115
米	-8.41124
先生	-8.41131
になった	-8.41264
姿	-8.41342
役	-8.41393
▁[	-8.41606
▁▁▁▁▁▁▁▁▁▁▁▁▁▁▁▁	-8.41654
症	-8.41832
共	-8.42172
限	-8.4226
それを	-8.42508
囲	-8.42822
▁私	-8.42842
業	-8.42947
公	-8.43168
系	-8.43184
ことを	-8.43345
現在	-8.43492
活動	-8.43694
。「	-8.43717
視	-8.43785
ぶ	-8.43946
状	-8.43996
一緒	-8.44071
正	-8.44961
取	-8.45019
収	-8.45057
けど	-8.45311
量	-8.45749
作品	-8.45857
近	-8.4603
に対	-8.46101
論	-8.46324
m	-8.4641
そうです	-8.46591
小	-8.46752
だが	-8.47145
何か	-8.47272
さらに	-8.47526
のような	-8.47541
!」	-8.47588
▁at	-8.47592
分か	-8.479
▁an	-8.48487
ことが	-8.48518
できない	-8.48632
一番	-8.48834
A	-8.4904
彼女	-8.49099
花	-8.49348
指	-8.49397
自	-8.49441
▁A	-8.49882
一つ	-8.49987
ません	-8.505
ること	-8.50552
かな	-8.50657
運	-8.50717
周	-8.51126
為	-8.51325
初め	-8.51449
まだ	-8.51463
調	-8.51514
歌	-8.51535
白	-8.51749
組	-8.51853
願い	-8.51899
第	-8.51907
内容	-8.52276
させ	-8.52291
結婚	-8.52436
女	-8.52592
通り	-8.52904
理由	-8.53449
そういう	-8.53754
一人	-8.53942
生き	-8.53999
n	-8.54214
存在	-8.54393
神	-8.54398
▁not	-8.54403
病	-8.54481
類	-8.54557
いです	-8.54621
せ	-8.54812
▁その	-8.54864
表	-8.55366
早	-8.55475
料	-8.55493
▁were	-8.55763
局	-8.55864
のお	-8.55995
ていく	-8.56001
さんが	-8.56127
案	-8.56219
率	-8.56363
原	-8.56489
割	-8.56582
展	-8.56583
母	-8.56781
額	-8.569
台	-8.56918
験	-8.56925
使用	-8.57375
重	-8.57544
であり	-8.58167
状況	-8.58413
走	-8.58485
変わ	-8.58661
研究	-8.58688
型	-8.59074
注	-8.59074
あの	-8.59171
というのは	-8.59313
毛	-8.59381
交	-8.59385
違い	-8.59539
登	-8.59558
あと	-8.59765
念	-8.59943
ここ	-8.60158
ではない	-8.60234
かなり	-8.6026
映画	-8.60289
演	-8.60495
あなた	-8.60576
れる	-8.60582
駅	-8.6061
部分	-8.60645
流	-8.60702
光	-8.60833
産	-8.60901
企業	-8.60973
屋	-8.61074
最後	-8.61172
あり	-8.61268
よりも	-8.61555
材	-8.6187
;	-8.62134
されてい	-8.62226
▁can	-8.62554
寝	-8.62603
ども	-8.62722
続	-8.62761
熱	-8.62852
常	-8.62867
べき	-8.6287
」「	-8.63034
天	-8.63039
命	-8.63154
▁self	-8.63196
▁if	-8.6326
されて	-8.63268
w	-8.63291
増え	-8.63315
君	-8.63837
t	-8.63842
界	-8.64119
減	-8.64164
地域	-8.643
er	-8.64545
教え	-8.64555
】	-8.64637
いと	-8.64712
もある	-8.64726
とても	-8.64815
費	-8.64858
試	-8.64879
配	-8.65052
大学	-8.65118
われる	-8.65157
があり	-8.65162
夏	-8.65355
きました	-8.65417
どう	-8.6543
すること	-8.65449
急	-8.65463
程度	-8.65505
覚	-8.65633
なんか	-8.65953
普通	-8.65988
適	-8.66001
見る	-8.66118
乗	-8.66314
に関	-8.66317
それが	-8.66457
しない	-8.66634
es	-8.66714
設	-8.6687
▁you	-8.66903
客	-8.67043
▁▁▁▁▁▁▁▁▁	-8.67144
訳	-8.67185
段	-8.67206
過	-8.67294
無い	-8.67433
催	-8.67536
理解	-8.67563
S	-8.67648
C	-8.67956
置	-8.68023
こんな	-8.68056
各	-8.68172
最初	-8.68656
環境	-8.68659
こそ	-8.68926
満	-8.69079
二	-8.69264
はず	-8.69443
▁In	-8.69567
低	-8.69658
).	-8.69809
ったら	-8.69849
でき	-8.69907
町	-8.70012
▁'	-8.70081
恋	-8.70185
やはり	-8.70471
るのは	-8.70594
a	-8.70688
薬	-8.70719
欲し	-8.70923
てきた	-8.70963
東京	-8.71035
▁have	-8.71432
編	-8.716
▁we	-8.71934
嫌	-8.71936
“	-8.72123
歩	-8.72161
非常	-8.72359
購	-8.72653
今年	-8.72655
提	-8.72782
があった	-8.73163
自身	-8.73174
んでいる	-8.73276
どの	-8.73428
......	-8.73504
さんは	-8.73599
改	-8.74167
あ	-8.74251
個人	-8.74319
真	-8.74377
簡	-8.74442
だろう	-8.74546
息	-8.74699
失	-8.74965
こちら	-8.75259
),	-8.75277
ようです	-8.75319
中国	-8.75544
象	-8.7557
英	-8.75584
っても	-8.75685
いつも	-8.76019
言え	-8.76042
といった	-8.76221
小さ	-8.76326
大切	-8.76341
過ぎ	-8.76404
ではなく	-8.76446
っ	-8.76771
ちゃん	-8.76995
重要	-8.77032
影響	-8.77286
ばかり	-8.77301
行き	-8.77468
頂	-8.77501
らしい	-8.77558
居	-8.7777
あります	-8.77936
住	-8.77992
選手	-8.78173
相	-8.7828
自然	-8.78281
応	-8.7829
日に	-8.78326
▁which	-8.78506
となる	-8.78524
新し	-8.78575
連	-8.7858
らず	-8.78588
向け	-8.78847
&	-8.79029
とき	-8.79156
により	-8.79163
ても	-8.79468
学校	-8.79559
上げ	-8.79586
家族	-8.7977
終わ	-8.79788
退	-8.79881
ん	-8.80216
料理	-8.80299
世	-8.80301
もっと	-8.80358
self	-8.80398
完	-8.80767
返	-8.8088
師	-8.80888
言わ	-8.81055
したい	-8.81689
だけど	-8.81759
において	-8.82056
教	-8.82077
差	-8.82146
勝	-8.8224
いている	-8.82243
):	-8.82311
ないと	-8.82438
みんな	-8.82565
御	-8.82628
▁+	-8.82676
幸	-8.827
ることが	-8.82732
i	-8.82752
▁I	-8.82852
ゲーム	-8.82914
評	-8.82973
張	-8.82987
異	-8.83227
したり	-8.83299
末	-8.83679
すれば	-8.83777
一度	-8.83885
ば	-8.83892
両	-8.84136
予定	-8.8427
人気	-8.84314
石	-8.84368
復	-8.84391
派	-8.84442
録	-8.84756
作り	-8.84942
使い	-8.85199
アメリカ	-8.85239
+	-8.85275
原因	-8.85277
▁▁▁▁▁	-8.85336
>	-8.85458
困	-8.85472
少	-8.85493
▁*	-8.8557
敵	-8.85594
予	-8.85864
難し	-8.85884
資	-8.85985
ましょう	-8.86038
ってる	-8.86059
▁-	-8.86148
席	-8.8619
持ち	-8.8624
室	-8.86493
求め	-8.86511
させて	-8.86652
服	-8.86747
対応	-8.87087
降	-8.87212
させる	-8.87327
仕	-8.87514
したら	-8.87557
決め	-8.87676
名前	-8.87685
B	-8.87795
計	-8.87847
面白	-8.87853
目の	-8.87889
もちろん	-8.88075
増	-8.88084
あった	-8.88134
送	-8.88147
あまり	-8.88238
楽しみ	-8.88393
であった	-8.88426
路	-8.88431
下さ	-8.88711
院	-8.88767
こう	-8.88769
たり	-8.88794
起こ	-8.8893
ください	-8.88954
術	-8.89091
三	-8.8922
古	-8.8935
街	-8.8948
ており	-8.89509
▁また	-8.89665
部屋	-8.8988
ることができ	-8.8991
肌	-8.89967
強い	-8.90017
号	-8.90115
難	-8.90241
教育	-8.90321
すべて	-8.90333
平	-8.90561
放	-8.91137
伝え	-8.91168
昔	-8.91391
木	-8.91551
付け	-8.91582
になりました	-8.91642
父	-8.91718
いますが	-8.92004
忘れ	-8.92122
一般	-8.92142
除	-8.92303
近く	-8.92368
するため	-8.9251
川	-8.92761
装	-8.92984
▁しかし	-8.92992
図	-8.93081
学生	-8.93091
生まれ	-8.93136
相談	-8.93315
起き	-8.93328
りました	-8.93424
深	-8.93614
基本	-8.93657
▁m	-8.93704
ないので	-8.93781
美	-8.93933
勢	-8.93942
なかなか	-8.94196
断	-8.94248
してい	-8.94291
技術	-8.94358
酒	-8.94487
たちの	-8.94733
行動	-8.94813
ていない	-8.94905
日の	-8.95004
程	-8.95014
春	-8.95075
それぞれ	-8.95116
勉強	-8.95128
効	-8.95128
イベント	-8.95163
雨	-8.95219
島	-8.95548
器	-8.95607
流れ	-8.95695
軍	-8.95698
逆	-8.95762
大きく	-8.95963
以前	-8.96168
のために	-8.96232
区	-8.96567
切	-8.966
頼	-8.96634
前の	-8.96714
そうな	-8.96751
二人	-8.96888
取り	-8.96912
売	-8.96933
入り	-8.97029
ありました	-8.97114
土	-8.97179
毎日	-8.97239
たいと	-8.9735
やっぱり	-8.97416
ありません	-8.97569
合わせ	-8.97736
和	-8.97905
務	-8.97968
発表	-8.98128
てくる	-8.9828
ほとんど	-8.98314
病院	-8.98395
やすい	-8.98544
そこで	-8.98608
黒	-8.98701
映	-8.98718
なのか	-8.98802
経済	-8.98805
絵	-8.98847
になり	-8.98877
紙	-8.98885
T	-8.99164
事業	-8.99263
ス	-8.99277
与え	-8.99314
注意	-8.9949
毎	-8.99681
士	-8.99682
なる	-8.99684
電話	-8.99813
速	-8.99883
表示	-9.00011
働	-9.00043
調査	-9.00124
しても	-9.00132
こういう	-9.00137
済	-9.00292
景	-9.00465
無理	-9.0047
▁your	-9.00509
音楽	-9.00509
だって	-9.00559
帯	-9.00638
給	-9.00675
のため	-9.0072
団	-9.0082
良く	-9.00849
変え	-9.00933
しながら	-9.01178
ずっと	-9.01178
治療	-9.01388
嬉し	-9.01449
党	-9.01456
たちは	-9.01505
ってきた	-9.01589
われた	-9.01839
にして	-9.01902
もあります	-9.0192
目的	-9.02029
途	-9.02275
ま	-9.02308
ものです	-9.02388
楽	-9.02663
なもの	-9.02707
め	-9.02838
出し	-9.02992
好	-9.03095
具	-9.03123
苦	-9.03154
接	-9.03213
わ	-9.03285
人生	-9.03403
出会い	-9.03458
体験	-9.03471
答え	-9.03483
省	-9.03554
丈	-9.03558
ですから	-9.0365
監	-9.03902
製	-9.03963
時の	-9.04005
D	-9.04022
示	-9.04082
▁their	-9.04092
電	-9.04117
♪	-9.04194
不安	-9.043
チーム	-9.04309
にとって	-9.04343
るように	-9.04665
後の	-9.04829
られない	-9.04839
どんな	-9.05034
これから	-9.05093
やり	-9.05119
すこと	-9.05382
まず	-9.05404
テレビ	-9.05629
描	-9.05867
端	-9.05915
善	-9.05956
赤	-9.06099
早く	-9.06154
対策	-9.06249
保	-9.06376
婚	-9.06477
戻	-9.06553
質問	-9.06607
ところ	-9.06707
イメージ	-9.06707
てしまう	-9.06776
ヶ	-9.0684
向	-9.06885
日本人	-9.0709
るので	-9.07201
援	-9.07382
ぐらい	-9.0739
中心	-9.07391
▁has	-9.07424
問	-9.07607
買い	-9.07641
にお	-9.07649
ということ	-9.0765
便	-9.07758
判	-9.07861
激	-9.07868
▁▁▁▁▁▁▁▁▁▁▁▁▁	-9.07891
',	-9.08029
殺	-9.08046
健康	-9.08276
頑張	-9.08486
脱	-9.08582
覚え	-9.08617
絶対	-9.08649
自由	-9.08705
付	-9.08727
すぐに	-9.08931
たちが	-9.09056
なければ	-9.09203
習	-9.09222
心配	-9.09248
見せ	-9.09311
肉	-9.0947
望	-9.0962
落ち	-9.0964
標	-9.09647
言い	-9.09665
整	-9.09701
大事	-9.0976
かと	-9.0976
開発	-9.09801
ここで	-9.09965
られて	-9.09984
データ	-9.10029
若	-9.10436
機能	-9.10571
歴史	-9.10578
みたいな	-9.10719
...。	-9.10767
変化	-9.10806
個	-9.10833
▁one	-9.10949
気に	-9.10983
しかも	-9.11062
作業	-9.11243
ぶり	-9.1135
火	-9.11457
ってくる	-9.11479
美味し	-9.11535
菜	-9.11648
いので	-9.1173
▁\	-9.11834
続き	-9.1184
それに	-9.11876
間違	-9.11893
ひとつ	-9.11973
▁今日	-9.11978
向か	-9.11982
右	-9.12259
座	-9.12309
れている	-9.12502
高校	-9.12645
c	-9.12649
以下	-9.12806
期間	-9.12821
夢	-9.12838
家の	-9.12865
髪	-9.12929
なります	-9.12935
▁This	-9.12954
M	-9.13051
消	-9.13091
十分	-9.1313
起	-9.13164
成長	-9.13204
られている	-9.13293
思い出	-9.13313
左	-9.13415
議	-9.13496
に対し	-9.13614
納	-9.13635
準備	-9.13708
▁これ	-9.13763
つまり	-9.1379
▁お	-9.13855
政	-9.13895
王	-9.14072
最高	-9.14311
弱	-9.14345
ファン	-9.14352
娘	-9.14394
田	-9.14411
負	-9.14471
血	-9.14499
代表	-9.14512
守	-9.14629
g	-9.14688
レベル	-9.14869
課	-9.14892
瞬	-9.14945
を得	-9.15062
来た	-9.15108
腹	-9.15143
担	-9.15263
b	-9.15276
首	-9.15286
官	-9.15368
魅	-9.15392
▁$	-9.15399
まれ	-9.1544
をつけ	-9.15521
就	-9.15764
▁these	-9.15789
印象	-9.15823
載	-9.15908
▁all	-9.15985
つつ	-9.16043
すぐ	-9.16146
ましたが	-9.16392
運動	-9.16408
そのまま	-9.16474
意見	-9.16542
昼	-9.1655
の上	-9.16582
犬	-9.16601
のみ	-9.16703
探	-9.16708
件	-9.16712
ネット	-9.16712
].	-9.1674
何も	-9.16777
比べ	-9.16855
様子	-9.16917
どこ	-9.16921
ために	-9.16962
治	-9.17119
{	-9.17188
歯	-9.17257
賞	-9.17343
ど	-9.17416
なのに	-9.17425
カ	-9.17474
移	-9.17509
態	-9.17588
文化	-9.17695
少なく	-9.17747
村	-9.17752
ております	-9.17831
ったり	-9.17906
雑	-9.18033
ですか	-9.18138
ります	-9.18158
・・	-9.18201
ずに	-9.18204
▁but	-9.18225
民	-9.18314
略	-9.18324
我	-9.18331
るのが	-9.18388
そこ	-9.18525
ぐ	-9.18639
ですよ	-9.18778
読み	-9.18992
選択	-9.19038
協	-9.19151
香	-9.1947
ということで	-9.19498
支援	-9.19506
んです	-9.19545
できます	-9.19577
飯	-9.19638
版	-9.19675
税	-9.19676
判断	-9.19678
になっている	-9.19742
っていました	-9.19829
過去	-9.19973
階	-9.20009
事件	-9.20014
になると	-9.20075
のもの	-9.20176
休み	-9.20674
書き	-9.20712
確か	-9.20751
専門	-9.20812
だし	-9.20897
え	-9.21126
絶	-9.21149
▁also	-9.21214
であれば	-9.21365
調べ	-9.2142
妻	-9.21476
そうだ	-9.21498
韓国	-9.2159
ぬ	-9.21668
見つけ	-9.2172
なぜ	-9.21759
政府	-9.21841
督	-9.22097
というもの	-9.22137
んでい	-9.22165
o	-9.22274
こ	-9.22401
しっかり	-9.22429
まあ	-9.22533
があって	-9.22585
痛	-9.22631
ることは	-9.22662
険	-9.22711
宿	-9.22725
総	-9.22848
どれ	-9.22848
放送	-9.22937
じゃ	-9.22982
貴	-9.23039
当たり	-9.23128
比較	-9.23132
在	-9.23167
ちなみに	-9.23208
販売	-9.23298
任	-9.23416
計画	-9.23448
短	-9.23641
ですよね	-9.23662
横	-9.23663
なり	-9.23671
つの	-9.2372
▁more	-9.23771
国民	-9.23851
館	-9.23948
考	-9.23955
それでも	-9.24006
ies	-9.24122
引	-9.24123
となった	-9.24134
危	-9.24184
F	-9.24202
成功	-9.24337
撮影	-9.2442
超	-9.24441
目指	-9.24458
旅行	-9.24524
とした	-9.24738
呼ば	-9.24776
必ず	-9.24937
表現	-9.25032
始ま	-9.2514
▁【	-9.2523
躍	-9.25244
さんに	-9.2527
身体	-9.253
よね	-9.2537
順	-9.25484
育	-9.2549
義	-9.25646
換	-9.25728
けれども	-9.25755
くこと	-9.2578
練習	-9.25822
興味	-9.25832
動き	-9.25853
事故	-9.25857
裏	-9.25998
R	-9.26021
過ご	-9.2614
医療	-9.26186
飲み	-9.26186
密	-9.26292
知ら	-9.26314
せず	-9.26362
▁def	-9.26436
▁into	-9.26576
労働	-9.26641
上が	-9.26653
旅	-9.26848
メール	-9.26872
魔	-9.26937
▁other	-9.26973
既	-9.26994
完全	-9.27029
安全	-9.27103
やら	-9.27153
これまで	-9.27182
いや	-9.27245
軽	-9.27452
システム	-9.27593
背	-9.27696
タイプ	-9.27814
迷	-9.27849
思え	-9.27891
▁data	-9.27901
導	-9.27926
園	-9.28023
北	-9.28138
猫	-9.28149
迎え	-9.28267
徒	-9.28278
び	-9.28292
安心	-9.28517
そこに	-9.28545
r	-9.28587
してお	-9.28637
洗	-9.28682
飲	-9.28689
充	-9.28782
ませんでした	-9.28853
ときに	-9.28859
静	-9.28864
事実	-9.28952
あれ	-9.28955
",	-9.29033
することが	-9.29049
聞き	-9.29098
p	-9.29163
しようと	-9.29202
報告	-9.29396
東	-9.29436
追	-9.29786
昨日	-9.29803
▁two	-9.29942
温	-9.30021
政治	-9.30127
冬	-9.30146
打	-9.30185
大人	-9.30228
変更	-9.30257
進め	-9.30359
患	-9.3038
()	-9.30462
快	-9.30591
一部	-9.30876
渡	-9.3108
よい	-9.311
検	-9.31125
P	-9.31136
立ち	-9.31313
限り	-9.31342
ち	-9.31345
▁between	-9.31439
遊	-9.31489
▁time	-9.31769
いもの	-9.31857
してきた	-9.31943
てる	-9.31944
けれど	-9.3209
かったです	-9.32104
▁will	-9.32153
使え	-9.32177
余	-9.3223
るもの	-9.32235
骨	-9.32277
▁–	-9.32428
星	-9.3245
へと	-9.32495
じゃない	-9.32591
一方	-9.32644
枚	-9.32756
かれ	-9.32939
担当	-9.32951
全国	-9.3301
いろいろ	-9.33023
青	-9.331
章	-9.33218
なくて	-9.33227
業者	-9.33229
輩	-9.33312
メンバー	-9.33353
▁return	-9.33366
有名	-9.33391
雰	-9.33401
としても	-9.33448
止め	-9.33466
臭	-9.33519
能力	-9.33551
将	-9.33575
現実	-9.3368
でしたが	-9.33792
広	-9.3385
船	-9.33906
込み	-9.34003
大会	-9.34076
バス	-9.34169
もし	-9.34272
壁	-9.34364
脳	-9.34461
してる	-9.34475
が悪	-9.34607
責任	-9.34814
認め	-9.34979
汗	-9.35068
馬	-9.35123
in	-9.35462
条件	-9.35538
となり	-9.35551
同時	-9.35612
葉	-9.3565
経営	-9.35669
去	-9.35796
明日	-9.3588
ちゃんと	-9.35947
工	-9.35988
ホテル	-9.35994
ていました	-9.36045
保険	-9.36116
いました	-9.36135
契約	-9.36187
するのは	-9.36222
辺	-9.36295
支	-9.3637
制度	-9.36425
・・・。	-9.36489
奥	-9.36538
かもしれない	-9.36649
少な	-9.36663
文字	-9.36675
純	-9.36819
*	-9.36889
武	-9.36898
れています	-9.36986
くと	-9.37081
いま	-9.3713
G	-9.37209
お話	-9.37314
すぎ	-9.37381
南	-9.37455
層	-9.37602
▁its	-9.37677
億	-9.37862
染	-9.37865
剤	-9.37871
▁##	-9.37913
れ	-9.37953
破	-9.3816
をしている	-9.38183
思わ	-9.38355
圧	-9.38437
最終	-9.38535
元気	-9.38578
精神	-9.38596
かに	-9.38659
連絡	-9.3877
}	-9.38943
決定	-9.38975
知識	-9.39002
のことを	-9.39152
してしまう	-9.39162
るため	-9.39263
太	-9.39325
至	-9.39428
さえ	-9.39455
級	-9.39471
根	-9.39527
かも	-9.39543
腕	-9.3956
あたり	-9.39661
憶	-9.39707
なんだ	-9.3981
撃	-9.39835
観光	-9.39923
f	-9.40008
なお	-9.40179
K	-9.4028
遠	-9.40305
わたし	-9.40371
引き	-9.40401
波	-9.40559
西	-9.40566
▁そんな	-9.4067
るか	-9.40696
建	-9.40704
強く	-9.4071
規	-9.40754
取り組	-9.40835
希望	-9.40901
耳	-9.40941
ごと	-9.41023
▁they	-9.41097
間に	-9.41114
とにかく	-9.41188
とりあえず	-9.41205
していました	-9.41292
▁number	-9.41485
修	-9.41749
るような	-9.4178
勤	-9.41785
聴	-9.41884
害	-9.41889
指導	-9.41923
▁when	-9.42005
倍	-9.42077
プロ	-9.42132
戦争	-9.4218
貨	-9.42321
終了	-9.42352
ダメ	-9.42533
まぁ	-9.42647
遊び	-9.42669
列	-9.42796
▁using	-9.42839
施設	-9.42889
▁than	-9.42962
弾	-9.42967
夕	-9.43023
いない	-9.43056
どちら	-9.43066
爆	-9.43124
疲れ	-9.43136
傷	-9.43142
【	-9.43237
さま	-9.43266
寒	-9.4327
これら	-9.43295
ないように	-9.43432
$	-9.43541
なくても	-9.43584
あるいは	-9.43819
開始	-9.43862
素晴らし	-9.43892
おける	-9.43898
最大	-9.43969
介	-9.44002
ってきました	-9.4411
ノ	-9.44127
だったので	-9.4417
E	-9.44213
混	-9.44213
超え	-9.44348
の手	-9.44429
布	-9.4445
なのです	-9.44494
移動	-9.44551
極	-9.44551
自体	-9.44568
てください	-9.44615
▁such	-9.44669
秋	-9.44676
てくれる	-9.4475
胸	-9.44827
ほぼ	-9.44838
さんと	-9.44912
公開	-9.4494
しましょう	-9.44946
驚	-9.45018
デザイン	-9.45056
おすすめ	-9.4509
主義	-9.45102
▁import	-9.45109
証	-9.45111
るために	-9.45217
というか	-9.4537
優	-9.45424
つい	-9.45426
すぎる	-9.45464
落	-9.45557
▁S	-9.45575
▁used	-9.45595
終わり	-9.45625
ぜひ	-9.45681
▁been	-9.4569
てしまった	-9.45695
防	-9.45749
特徴	-9.45825
繰り返	-9.45894
独	-9.45895
実施	-9.45998
ケース	-9.46071
告	-9.46276
るのか	-9.46348
ことに	-9.46473
▁>	-9.46585
刺	-9.46635
切り	-9.46655
非	-9.46703
信じ	-9.46919
感謝	-9.47006
まずは	-9.47209
若い	-9.47259
すでに	-9.47279
提供	-9.47305
称	-9.47344
▁his	-9.47359
地方	-9.47399
攻撃	-9.47543
試験	-9.47552
雪	-9.47565
能	-9.47602
があると	-9.47605
株	-9.47715
#	-9.47738
高く	-9.47782
あるので	-9.47801
散	-9.47837
剣	-9.47934
草	-9.47949
N	-9.47964
明ら	-9.48142
節	-9.48241
特別	-9.48324
るという	-9.48362
なければならない	-9.48404
加え	-9.48422
投	-9.4845
暮ら	-9.48517
丸	-9.48612
かもしれません	-9.48718
離れ	-9.48793
ところで	-9.48819
ではありません	-9.48911
▁・	-9.49019
処	-9.49041
もなく	-9.49131
属	-9.4919
てきました	-9.49261
▁B	-9.49416
奴	-9.49434
すごい	-9.49604
テーマ	-9.49632
美し	-9.4965
わない	-9.49708
→	-9.49717
というのが	-9.49751
グループ	-9.50086
きっと	-9.5014
なのだ	-9.50162
消費	-9.50243
主人	-9.50291
年齢	-9.50387
国際	-9.50547
すごく	-9.50564
自己	-9.50605
作成	-9.50605
われて	-9.50736
かかる	-9.50768
れた	-9.50908
市場	-9.50908
策	-9.51013
薄	-9.51098
っていない	-9.51133
ズ	-9.51238
果	-9.51315
関わ	-9.5132
ときは	-9.51342
▁may	-9.51381
したこと	-9.51393
立て	-9.51425
存	-9.51484
さが	-9.51575
ド	-9.51779
茶	-9.51779
ならば	-9.51842
方向	-9.52053
」(	-9.52134
スタッフ	-9.52186
仲間	-9.52189
いえ	-9.52197
欲	-9.52233
医	-9.52234
してください	-9.5227
だよ	-9.52287
なぁ	-9.52371
連れ	-9.52417
怖	-9.52507
負け	-9.52608
暑	-9.52765
ようだ	-9.52918
▁each	-9.5294
わけです	-9.52967
al	-9.53002
ありますが	-9.53036
仮	-9.53051
)」	-9.53103
ってくれ	-9.53235
パン	-9.53259
寺	-9.53319
とともに	-9.53432
求	-9.53436
撮	-9.53467
焼き	-9.53618
したいと	-9.53678
スタート	-9.53767
▁first	-9.53776
k	-9.53778
聞く	-9.53819
帰り	-9.53829
検査	-9.53907
あって	-9.53913
察	-9.53938
昨年	-9.53984
績	-9.54048
指定	-9.54061
禁	-9.54085
たのは	-9.54111
源	-9.54138
悩	-9.54151
障害	-9.54207
発売	-9.54227
女の	-9.54239
扱	-9.54261
家庭	-9.54322
更新	-9.54396
ますので	-9.54442
城	-9.54479
大阪	-9.54479
れます	-9.54508
談	-9.54616
公園	-9.54618
湯	-9.54665
板	-9.54673
わず	-9.5471
ドラマ	-9.54712
いたします	-9.54748
っていく	-9.54767
シリーズ	-9.54796
カード	-9.54893
報	-9.54913
趣	-9.54913
センター	-9.54958
アップ	-9.5498
I	-9.5502
ニュース	-9.55067
機関	-9.55116
巻	-9.55177
パパ	-9.55184
なんで	-9.55297
ていて	-9.55304
被害	-9.55311
補	-9.55457
普段	-9.55624
▁C	-9.55647
育て	-9.55677
るべき	-9.55688
距離	-9.5573
いたら	-9.55736
組織	-9.55813
損	-9.55885
造	-9.55922
本人	-9.55936
X	-9.55971
債	-9.56046
集め	-9.56071
ア	-9.56088
操	-9.56137
失敗	-9.56156
努	-9.56274
してくれる	-9.56315
料金	-9.5652
っと	-9.56537
ほか	-9.56541
含め	-9.56545
豊	-9.56687
H	-9.56729
女子	-9.56866
校	-9.56923
休	-9.56934
著	-9.57004
コース	-9.57039
だったら	-9.57156
可愛	-9.57234
物語	-9.57286
魚	-9.57342
そもそも	-9.57517
▁some	-9.57541
できた	-9.5796
不思議	-9.58034
兄	-9.58085
我が	-9.58127
抜け	-9.58333
上の	-9.58376
平成	-9.58502
L	-9.58543
外国	-9.5857
惑	-9.58585
細	-9.58594
することができ	-9.58671
暗	-9.58737
もあり	-9.58763
挑	-9.5881
迫	-9.59142
正直	-9.59157
伝	-9.59159
しばらく	-9.59337
捨て	-9.59575
ができ	-9.59589
いただき	-9.59733
なっている	-9.59791
ぞ	-9.59915
働き	-9.59982
異な	-9.60103
▁how	-9.60177
卒業	-9.60292
まとめ	-9.60337
玉	-9.60393
抗	-9.60542
油	-9.60551
それから	-9.60649
かれた	-9.60659
したもの	-9.6073
参考	-9.60796
▁それ	-9.6097
▁日本	-9.61059
許	-9.61101
了	-9.61144
▁{	-9.61196
皮	-9.61246
隣	-9.61268
んでいた	-9.61292
保護	-9.61328
ここに	-9.61352
▁like	-9.61392
id	-9.61413
授業	-9.61529
ずつ	-9.61537
があるの	-9.61679
していて	-9.61766
検討	-9.61792
腰	-9.61803
の子	-9.61855
旧	-9.61872
してくれ	-9.61936
宅	-9.61973
ていると	-9.61996
そのため	-9.62008
記念	-9.62098
活用	-9.62106
年度	-9.62227
ever	-9.62265
橋	-9.62309
沢	-9.62317
印	-9.62352
悩み	-9.62366
痛み	-9.62369
被	-9.62497
更	-9.62543
はありません	-9.62549
意外	-9.62628
摘	-9.6263
削	-9.62655
容	-9.62664
▁about	-9.62692
盤	-9.62721
える	-9.6298
ますね	-9.63027
それで	-9.63114
筋	-9.63135
探し	-9.63181
並	-9.63211
日常	-9.63223
シーン	-9.63292
使わ	-9.63326
位置	-9.63363
罪	-9.63488
欠	-9.6352
ところが	-9.63567
J	-9.63578
あなたの	-9.63583
],	-9.63608
▁had	-9.63697
跡	-9.63871
宮	-9.63917
勝手	-9.6394
▁only	-9.6403
たくさん	-9.641
('	-9.64136
十	-9.64202
乱	-9.6442
才	-9.64464
積	-9.64501
っていて	-9.64513
借り	-9.64537
地元	-9.64544
丁	-9.6459
技	-9.64594
処理	-9.64613
辛	-9.64656
抜	-9.64658
届	-9.64767
▁our	-9.64888
付き合	-9.64932
宗	-9.64965
ドル	-9.65001
ライブ	-9.65071
銀行	-9.65087
司	-9.65169
関連	-9.65262
まったく	-9.65462
酸	-9.65495
▁there	-9.65497
なこと	-9.65551
ものの	-9.65557
name	-9.65644
▁自分	-9.65666
▁そう	-9.65667
ろうと	-9.65695
取引	-9.65808
分かり	-9.65818
ってしまう	-9.65884
h	-9.65905
午後	-9.65912
▁<	-9.66077
史	-9.66245
願	-9.66356
てきて	-9.66421
ゆる	-9.66434
ダイエット	-9.6648
申し	-9.66499
クラス	-9.66505
薬剤師	-9.66581
▁high	-9.66676
団体	-9.66685
にとっては	-9.667
▁It	-9.66811
コ	-9.66852
志	-9.66894
即	-9.66909
創	-9.66944
肩	-9.67006
であろう	-9.67114
宣	-9.67198
▁ただ	-9.67415
受	-9.67429
いですね	-9.67456
を通	-9.67465
なんです	-9.67499
反対	-9.67517
けば	-9.67586
ありがとうございました	-9.67594
▁through	-9.67669
関	-9.67711
固	-9.67725
のだが	-9.6783
携	-9.67867
ありがとうございます	-9.67888
ったこと	-9.67986
秘	-9.68055
直接	-9.68114
の間	-9.6812
科	-9.68135
だな	-9.68141
出会	-9.6821
があれば	-9.68232
モデル	-9.6828
うと	-9.68418
どこか	-9.68471
のところ	-9.68486
ってしまった	-9.68507
たので	-9.68513
することで	-9.68549
幅	-9.68559
族	-9.68634
桜	-9.68649
第一	-9.68655
助	-9.68686
一日	-9.68833
筆	-9.68855
▁both	-9.68884
算	-9.69049
穴	-9.69102
企画	-9.69264
含	-9.69296
まさに	-9.69324
▁use	-9.69339
もない	-9.6936
似	-9.69458
綺麗	-9.69513
老	-9.69578
広が	-9.69712
年代	-9.69909
はまだ	-9.69989
児	-9.70038
サイズ	-9.70044
未	-9.70086
がいい	-9.7018
いていた	-9.70242
門	-9.70378
精	-9.70402
縁	-9.70455
切れ	-9.70516
診	-9.70576
リ	-9.70597
誤	-9.70651
堂	-9.70749
訪れ	-9.70758
ン	-9.70818
to	-9.70834
the	-9.70858
利益	-9.70982
開け	-9.70995
v	-9.71025
未来	-9.71059
いわ	-9.71094
わかる	-9.71117
ができる	-9.71157
触れ	-9.71162
都	-9.7125
アプリ	-9.71257
やって	-9.71296
虫	-9.71461
th	-9.71502
傾	-9.71577
遅	-9.71643
祭	-9.71683
セット	-9.71777
ねぇ	-9.71808
どんどん	-9.71926
▁x	-9.7197
礼	-9.71975
くなる	-9.71982
照	-9.72002
従	-9.72007
ストレス	-9.72269
ろ	-9.72342
追加	-9.72392
字	-9.72443
取得	-9.72457
正し	-9.72465
涙	-9.72513
ママ	-9.72544
l	-9.72563
▁先	-9.72613
生産	-9.72668
国内	-9.72668
☆	-9.72747
厳し	-9.72783
てくれた	-9.72863
副	-9.72963
漫画	-9.73084
ものが	-9.73216
自宅	-9.73262
国家	-9.73356
粉	-9.73375
▁where	-9.73382
すぎて	-9.73412
れない	-9.73437
うちに	-9.73562
気づ	-9.73651
華	-9.7367
角	-9.73752
誘	-9.73816
スポーツ	-9.73914
避け	-9.73918
話し	-9.7392
V	-9.74039
滅	-9.74053
舞台	-9.74058
まして	-9.74105
▁out	-9.74173
久し	-9.74205
救	-9.74209
喜	-9.74248
どうしても	-9.74329
保育	-9.74353
なのは	-9.7438
アニメ	-9.74439
窓	-9.7444
本日	-9.74444
甘	-9.74478
動か	-9.74507
知り	-9.74516
ってます	-9.74531
施	-9.7463
採用	-9.74632
慣れ	-9.74648
ってきて	-9.74717
演奏	-9.74726
ることを	-9.74815
季節	-9.74821
炎	-9.74838
範	-9.74852
農	-9.74983
いろんな	-9.74998
労	-9.75015
やすく	-9.7511
エネルギー	-9.75246
ことも	-9.75247
にくい	-9.75251
通常	-9.75257
都市	-9.75354
▁over	-9.75412
兵	-9.7542
集ま	-9.75578
維	-9.75664
▁さて	-9.75785
ネタ	-9.75786
▁new	-9.75815
条	-9.76074
塩	-9.76087
▁would	-9.76228
助け	-9.76243
姉	-9.76346
楽しめ	-9.76437
築	-9.76471
スレ	-9.76557
られてい	-9.76598
モノ	-9.76685
医師	-9.76914
▁no	-9.77007
みたいです	-9.77084
さんも	-9.77107
ここまで	-9.77155
キャラ	-9.77166
千	-9.77169
なりません	-9.77194
刻	-9.77213
献	-9.77213
幕	-9.77234
突	-9.77235
謝	-9.77294
倫	-9.77308
基準	-9.77331
学習	-9.7737
止	-9.7741
ひと	-9.77494
▁any	-9.77506
–	-9.77639
弁	-9.77711
霊	-9.77746
会議	-9.77772
はもう	-9.77821
をかけ	-9.77823
かどうか	-9.77832
▁※	-9.77857
人物	-9.77866
くん	-9.77887
慮	-9.77919
会話	-9.77957
稼	-9.78036
消え	-9.78046
鉄	-9.7813
妹	-9.78272
本来	-9.78301
みなさん	-9.78366
マン	-9.78569
柄	-9.78601
':	-9.78641
現代	-9.78657
▁How	-9.78676
なくなる	-9.78752
きちんと	-9.7878
乳	-9.78854
掛け	-9.78897
乾	-9.78905
んですね	-9.78926
請	-9.78928
四	-9.79012
妊	-9.79056
むしろ	-9.79088
包	-9.7912
聞こえ	-9.79162
隊	-9.79252
成分	-9.79296
売り	-9.79504
カメラ	-9.79565
法律	-9.79567
則	-9.79648
段階	-9.79687
ことで	-9.79757
いただきました	-9.79827
是非	-9.79831
金融	-9.79873
きます	-9.799
O	-9.79976
ますよ	-9.80008
▁most	-9.80198
谷	-9.80224
市民	-9.80235
、『	-9.8046
科学	-9.80675
そうで	-9.80684
しているの	-9.80712
イ	-9.80767
与	-9.80783
うまく	-9.80784
議員	-9.80789
▁different	-9.80795
つもり	-9.80898
訪	-9.80921
神社	-9.81022
典	-9.81086
～。	-9.81135
諸	-9.81373
みたい	-9.814
伴	-9.81426
森	-9.81444
さまざま	-9.81468
コミ	-9.81563
data	-9.81645
いずれ	-9.81698
箱	-9.81704
選挙	-9.81755
▁T	-9.81895
W	-9.81906
リスク	-9.81981
お客	-9.82026
州	-9.82041
述べ	-9.82072
事務所	-9.82105
or	-9.82121
境	-9.82215
ity	-9.82243
政策	-9.82258
折	-9.82482
袋	-9.82555
ビジネス	-9.82609
バランス	-9.82674
解説	-9.82689
ということは	-9.82697
養	-9.82699
▁p	-9.82782
電車	-9.82812
ル	-9.82876
よかった	-9.82886
ることで	-9.82907
でございます	-9.82911
支払	-9.8295
闘	-9.82967
摂	-9.8299
社長	-9.82993
感動	-9.83126
大臣	-9.83169
委員会	-9.8322
後ろ	-9.83296
▁so	-9.8332
申し上げ	-9.83379
管	-9.83478
on	-9.8356
握	-9.83681
ことができ	-9.8377
壊	-9.83789
さない	-9.84043
するのが	-9.84191
動物	-9.84197
なし	-9.84198
募集	-9.84237
底	-9.84337
呼	-9.84399
液	-9.84419
厚	-9.84503
のうち	-9.84563
決ま	-9.84568
覧	-9.84613
住宅	-9.84657
メニュー	-9.847
まだまだ	-9.84717
終	-9.84717
▁もう	-9.84782
逃げ	-9.84789
▁P	-9.84834
苦し	-9.84848
沖縄	-9.85019
ラ	-9.85034
次第	-9.85085
犯	-9.85154
相当	-9.85211
球	-9.85337
風呂	-9.85368
はっきり	-9.85373
ったのは	-9.85398
ト	-9.85413
といえば	-9.85484
出た	-9.85505
限定	-9.85512
▁We	-9.85643
▁実	-9.85685
のだろう	-9.85714
▁he	-9.8574
ことができる	-9.8575
▁up	-9.85754
していると	-9.85773
▁who	-9.85777
▁c	-9.85837
因	-9.85925
フランス	-9.86092
自信	-9.8611
▁after	-9.86129
合い	-9.86381
るまで	-9.86411
しっかりと	-9.86546
させた	-9.86598
疑問	-9.86642
脚	-9.86713
否	-9.86762
京都	-9.86834
こうした	-9.86883
置い	-9.86907
運営	-9.86929
中央	-9.86989
▁==	-9.87046
調整	-9.87123
悪く	-9.87227
▁study	-9.87276
まるで	-9.87305
賛	-9.87346
▁np	-9.87384
民主	-9.87415
平均	-9.87448
^	-9.87542
小説	-9.87589
すら	-9.87596
飛	-9.8765
年生	-9.87714
沿	-9.87736
昭和	-9.87742
get	-9.87764
おり	-9.87778
ないし	-9.87781
▁show	-9.87819
変わり	-9.87829
ク	-9.87856
行け	-9.87934
さに	-9.87977
▁"""	-9.8799
▁D	-9.87992
▁them	-9.87993
となって	-9.87993
由	-9.88117
他人	-9.88123
依頼	-9.88127
Y	-9.88142
規模	-9.88173
清	-9.88204
五	-9.88205
やる	-9.88277
眼	-9.88317
そんなに	-9.88358
縮	-9.88403
することは	-9.88455
設置	-9.88628
')	-9.88701
<	-9.88794
空気	-9.88797
▁then	-9.8885
しかない	-9.88854
▁cells	-9.88874
自転車	-9.88962
申	-9.88988
▁■	-9.89034
温泉	-9.89112
たこと	-9.89131
ければ	-9.89139
眠	-9.89152
きたい	-9.8917
てしまいます	-9.8921
やっと	-9.89233
百	-9.89339
であります	-9.8938
伸び	-9.89429
離	-9.89435
教室	-9.89534
んですけど	-9.89594
いろいろな	-9.89603
上手	-9.89658
以来	-9.89687
乗り	-9.89708
立つ	-9.89709
タイミング	-9.89713
改め	-9.89779
つき	-9.89809
冷	-9.89897
シーズン	-9.89994
暴	-9.901
向き	-9.90111
分け	-9.90186
▁To	-9.90197
ていきます	-9.90202
よろしくお	-9.90236
長く	-9.90246
獲	-9.90257
緊	-9.90331
鼻	-9.90346
楽しく	-9.90385
お互い	-9.90401
床	-9.90575
つなが	-9.90686
ああ	-9.90695
アルバム	-9.90857
かもしれませんが	-9.90946
分析	-9.90974
測	-9.90996
核	-9.91028
くなった	-9.91036
スタイル	-9.91047
のほうが	-9.91088
▁model	-9.91096
付き	-9.91132
余裕	-9.91212
句	-9.91242
とのこと	-9.91251
まま	-9.91411
たもの	-9.91423
故	-9.91467
比	-9.91571
っぽい	-9.91731
計算	-9.91887
うちの	-9.91904
during	-9.91971
到着	-9.91992
無く	-9.92012
現れ	-9.92015
▁do	-9.92103
栄養	-9.92105
泊	-9.9211
なんと	-9.92124
領	-9.9213
菓子	-9.92266
サポート	-9.92296
押し	-9.92328
あること	-9.92351
警察	-9.9242
してしまった	-9.92421
勧め	-9.92433
興	-9.92585
▁ここ	-9.92599
支え	-9.92624
争	-9.92697
アジア	-9.92723
野球	-9.92743
降り	-9.92784
怒	-9.92926
上がり	-9.92956
なのですが	-9.92986
てみると	-9.92988
っております	-9.93005
福	-9.93047
報道	-9.93073
始まり	-9.93095
しよう	-9.93126
林	-9.93185
後半	-9.93299
一体	-9.93301
なっています	-9.93395
含ま	-9.93462
したのは	-9.93476
笑い	-9.93519
疑	-9.93567
づくり	-9.93583
晩	-9.93614
メディア	-9.93682
▁set	-9.93769
述	-9.93818
なれば	-9.93856
メーカー	-9.93887
ナ	-9.93911
になっています	-9.93916
いきたい	-9.9396
懸	-9.93989
ぎ	-9.93995
焼	-9.94081
慣	-9.94103
菌	-9.94198
▁M	-9.9428
といって	-9.94303
批	-9.94321
出かけ	-9.94327
ることも	-9.94334
のだろうか	-9.94359
確実	-9.94466
庭	-9.94524
挙げ	-9.94535
ひとり	-9.94561
▁For	-9.94574
ファイル	-9.94592
("	-9.94699
洋	-9.94747
積極	-9.94776
ドイツ	-9.94787
ルール	-9.94812
......。	-9.94845
自動車	-9.9488
毒	-9.94937
ようやく	-9.94976
産業	-9.94981
▁value	-9.95011
ませんが	-9.95098
そのもの	-9.951
翌	-9.95239
審査	-9.9524
巨	-9.95243
なあ	-9.95334
かない	-9.95361
優し	-9.95364
突然	-9.9542
尊	-9.95514
のご	-9.95531
はとても	-9.95569
打ち	-9.95754
及び	-9.95856
たくさんの	-9.95986
かつて	-9.96037
残り	-9.9605
倒	-9.96087
落ち着	-9.96092
資金	-9.96109
抱え	-9.96112
夫婦	-9.96158
プロジェクト	-9.96175
......」	-9.96205
委員	-9.96221
引越	-9.96275
▁i	-9.96317
・・・・	-9.96321
かつ	-9.96336
終え	-9.96359
答	-9.9636
幼	-9.9639
確保	-9.96417
実行	-9.96417
構造	-9.96527
なくなった	-9.96583
敗	-9.96597
凄	-9.96627
いっぱい	-9.96667
るのです	-9.96718
バンド	-9.96733
['	-9.9677
れて	-9.96824
事情	-9.96899
鳥	-9.969
んですよ	-9.96937
受け入れ	-9.96963
歴	-9.97092
ることに	-9.97218
どういう	-9.97253
なんとか	-9.97292
沢山	-9.97368
周辺	-9.97383
世話	-9.97397
いく	-9.97477
拡大	-9.97493
好み	-9.97529
それら	-9.97585
少年	-9.97647
聖	-9.97697
テスト	-9.97725
振	-9.97762
スマホ	-9.97835
抱	-9.97835
ようなもの	-9.97855
できて	-9.97859
旦那	-9.97924
はあまり	-9.97945
となりました	-9.97964
まれた	-9.97964
プログラム	-9.98031
美容	-9.98084
多数	-9.98107
牛	-9.98175
連続	-9.98214
域	-9.98267
ボール	-9.98336
益	-9.98366
取れ	-9.98378
ないから	-9.98439
承	-9.98458
継続	-9.98506
片	-9.98536
重ね	-9.98552
はもちろん	-9.98587
なんだか	-9.98656
備	-9.98676
北海道	-9.98701
はどう	-9.98742
卵	-9.98793
緑	-9.98938
少女	-9.98996
ということです	-9.99009
干	-9.99041
無事	-9.9905
旨	-9.99052
▁昨日	-9.99059
▁could	-9.99082
z	-9.99107
いません	-9.99123
だという	-9.99174
工事	-9.99321
忙し	-9.99366
代わり	-9.99518
寿	-9.99663
だろうか	-9.99701
土地	-9.99729
OK	-9.99744
ておく	-9.99834
秒	-9.99873
研修	-9.99881
介護	-9.99995
といっても	-10.0003
▁function	-10.0004
たくない	-10.0007
高齢	-10.0009
んですが	-10.0009
神経	-10.0023
CD	-10.0026
房	-10.004
建設	-10.0047
▁while	-10.0053
▁E	-10.0055
メイン	-10.0056
ic	-10.0057
庫	-10.0063
クラブ	-10.0075
新聞	-10.008
こんなに	-10.0083
出身	-10.0085
っていると	-10.0089
るのも	-10.0094
試し	-10.0097
輪	-10.0107
でなく	-10.011
汁	-10.0111
世紀	-10.0121
苦労	-10.0121
っていう	-10.0125
タイトル	-10.0129
トップ	-10.013
採	-10.0133
悟	-10.0133
▁many	-10.0136
ないでしょうか	-10.0145
糖	-10.015
盛	-10.0155
複数	-10.0159
抑え	-10.0159
u	-10.0162
受験	-10.0166
交通	-10.0168
止ま	-10.0174
豪	-10.0175
筋肉	-10.018
com	-10.0187
はかなり	-10.019
キロ	-10.0191
ものだ	-10.0193
▁within	-10.0195
らしく	-10.0202
掃除	-10.0203
って来	-10.0206
陣	-10.0207
るでしょう	-10.0209
財	-10.021
▁今年	-10.0218
大量	-10.0223
展示	-10.0226
っており	-10.0233
))	-10.0239
午前	-10.0245
PC	-10.0246
健	-10.0246
きっかけ	-10.025
交流	-10.0251
トイレ	-10.0251
定期	-10.0262
高め	-10.0264
近所	-10.0268
劇	-10.0271
排	-10.0277
吸	-10.0281
崩	-10.0282
道路	-10.0285
をはじめ	-10.0285
んだけど	-10.0301
同士	-10.0311
▁need	-10.0312
里	-10.0321
ませ	-10.0321
▁Q	-10.0322
コン	-10.0326
札	-10.0328
ツアー	-10.0329
作用	-10.0335
パソコン	-10.0347
下げ	-10.0349
なかったので	-10.0349
ラーメン	-10.0352
ライン	-10.0352
回答	-10.0353
▁same	-10.0356
そこまで	-10.0356
スーパー	-10.0362
吉	-10.0364
一生	-10.0376
小学校	-10.0386
伝わ	-10.0397
ことです	-10.0406
複	-10.0407
メリット	-10.0412
無駄	-10.0416
娠	-10.0417
ようになった	-10.0418
×	-10.042
真っ	-10.0424
いくつか	-10.0427
酷	-10.0433
庁	-10.0435
そ	-10.0436
ないもの	-10.0448
ようになりました	-10.0454
遣	-10.0458
亡	-10.0469
悲し	-10.0477
ということを	-10.0477
ゆっくり	-10.0481
写	-10.0484
にならない	-10.0489
▁well	-10.0491
遅れ	-10.0498
プレイ	-10.0499
ろう	-10.0499
ないけど	-10.0501
のまま	-10.051
岩	-10.0512
地球	-10.0512
知れ	-10.0519
触	-10.0527
だろ	-10.0527
眺め	-10.0528
尾	-10.0534
予防	-10.0541
住民	-10.0556
詞	-10.0562
▁example	-10.057
able	-10.057
そんなこと	-10.0591
あっても	-10.0593
予算	-10.0608
ケア	-10.0616
伺	-10.0621
にしても	-10.0622
日間	-10.0624
植物	-10.0627
いでしょう	-10.0629
八	-10.0632
整備	-10.0636
法人	-10.0647
てくれ	-10.065
上昇	-10.0653
そうい	-10.0658
坂	-10.0659
遺	-10.0665
特定	-10.0668
電子	-10.0668
透	-10.0669
://	-10.067
払	-10.0675
自動	-10.0675
▁test	-10.0676
is	-10.069
優勝	-10.0697
さて	-10.0699
みたいに	-10.0703
られました	-10.0709
輝	-10.071
cm	-10.071
U	-10.0724
汚	-10.0724
宇宙	-10.073
うこと	-10.0735
樹	-10.0737
ついた	-10.0739
てしまいました	-10.0746
増や	-10.0752
ふ	-10.0756
弁護士	-10.0764
何故	-10.0769
実践	-10.0771
驚き	-10.0775
マ	-10.0775
約束	-10.0779
しないと	-10.0782
最新	-10.0784
ステージ	-10.0789
んですよね	-10.0802
寧	-10.0803
奪	-10.0814
渉	-10.0816
陽	-10.0823
インターネット	-10.0823
できません	-10.0825
こんにちは	-10.0825
いくら	-10.0826
のである	-10.083
▁**	-10.0839
たのか	-10.0847
おそらく	-10.0848
コーヒー	-10.0864
スキル	-10.0867
群	-10.0875
豆	-10.0879
ったもの	-10.0887
項	-10.089
否定	-10.0894
ていること	-10.0896
="	-10.0897
km	-10.0902
殿	-10.0908
怪	-10.0908
浮気	-10.0908
くなりました	-10.0909
来年	-10.0912
あれば	-10.0915
選び	-10.0919
太郎	-10.0922
いても	-10.0922
▁get	-10.0924
もあった	-10.0928
ざる	-10.0931
総合	-10.0934
いきなり	-10.0944
さすがに	-10.0946
うん	-10.0947
魔法	-10.0958
ったので	-10.0969
ばれ	-10.0977
伝統	-10.0978
ブランド	-10.0986
見つか	-10.0986
地震	-10.0986
障	-10.0988
靴	-10.0988
当て	-10.0988
気に入	-10.0995
建築	-10.0995
そろそろ	-10.0997
合格	-10.0999
基	-10.1001
j	-10.1002
一応	-10.1004
襲	-10.1007
us	-10.1007
藤	-10.1009
▁increase	-10.1011
診断	-10.1011
湿	-10.1018
だろうと	-10.1019
オ	-10.1024
一時	-10.1027
散歩	-10.1027
平和	-10.103
荷	-10.1031
証拠	-10.1031
近づ	-10.1035
ごろ	-10.1037
一年	-10.1042
資料	-10.1049
宝	-10.1052
Q	-10.1055
致	-10.1055
といわれ	-10.1056
射	-10.1059
飲ん	-10.1062
でしょ	-10.1064
おいしい	-10.1068
振り返	-10.1075
深く	-10.1085
かれて	-10.1093
咲	-10.1093
および	-10.1098
効率	-10.1102
最低	-10.1103
職員	-10.1103
▁what	-10.1104
レース	-10.1108
ベース	-10.111
会員	-10.1112
向上	-10.1122
たび	-10.1137
及	-10.1143
辞め	-10.1144
つけて	-10.1149
万人	-10.115
再生	-10.115
わけ	-10.1152
したので	-10.1153
理想	-10.1156
いところ	-10.117
プレゼント	-10.1173
大統領	-10.1176
▁▁▁	-10.1192
お母	-10.1193
りが	-10.12
じ	-10.122
敬	-10.1221
このまま	-10.1222
ていただき	-10.1222
面倒	-10.1231
ってい	-10.1232
露	-10.1236
ーん	-10.1236
いただいた	-10.1241
re	-10.1244
可	-10.1245
妙	-10.1245
廃	-10.1246
重な	-10.1246
彩	-10.1254
鬼	-10.1264
唯	-10.1278
ただし	-10.1279
ちょうど	-10.1282
▁H	-10.1289
基礎	-10.1295
営	-10.1295
釣り	-10.1296
どうも	-10.1299
▁line	-10.1307
達成	-10.1308
見かけ	-10.1308
バイク	-10.131
いのですが	-10.1324
分の	-10.133
臨	-10.1333
永	-10.1334
芸	-10.1336
path	-10.1345
祈	-10.1348
ロシア	-10.135
▁“	-10.1352
のほう	-10.1352
威	-10.1357
保存	-10.1362
ユーザー	-10.1367
▁work	-10.1367
じゃなくて	-10.1371
▁three	-10.1375
不明	-10.1375
須	-10.1383
現地	-10.1386
ないという	-10.1397
矢	-10.1404
だそうです	-10.1406
▁あと	-10.1407
盛り上が	-10.1409
カフェ	-10.1414
挨	-10.1414
Z	-10.1415
肝	-10.1418
拶	-10.1421
ことになる	-10.1423
のではなく	-10.1426
いう	-10.1426
テーブル	-10.1428
▁significant	-10.1432
▁al	-10.1433
食品	-10.1436
バ	-10.1436
隠	-10.1439
の名	-10.1443
スピード	-10.1445
厳	-10.1445
行い	-10.1447
チャンス	-10.1449
▁found	-10.145
▁b	-10.1454
オープン	-10.1461
つく	-10.1466
▁should	-10.1473
祝	-10.1483
かけ	-10.1509
行政	-10.151
こうと	-10.1511
離婚	-10.1515
振り	-10.1518
しません	-10.1527
ビール	-10.1528
ほしい	-10.1536
勘	-10.1538
冊	-10.154
癒	-10.1541
なさい	-10.1545
もとも	-10.1546
商	-10.155
体重	-10.155
°	-10.1554
歩き	-10.1565
を通じ	-10.1568
ソフト	-10.1582
であって	-10.1583
麺	-10.1585
下が	-10.1587
事も	-10.1593
いのか	-10.1593
詳細	-10.1596
教授	-10.1607
しなければ	-10.1612
ダ	-10.1612
▁F	-10.1634
優先	-10.1637
ねえ	-10.164
タ	-10.1642
松	-10.1644
諦め	-10.1645
▁僕	-10.1645
知る	-10.1656
て行	-10.1662
タイ	-10.1671
せっかく	-10.1671
嘘	-10.1674
ほうが	-10.1678
かれる	-10.1691
一気	-10.1692
狙	-10.1692
▁If	-10.1702
トラブル	-10.1705
リーグ	-10.1715
影	-10.1718
戸	-10.172
化粧	-10.1721
たとえば	-10.1721
ストーリー	-10.1724
鉄道	-10.1725
バー	-10.1726
刑	-10.173
看護	-10.1736
回り	-10.1737
仲	-10.1742
押	-10.1743
別れ	-10.1746
サッカー	-10.1747
天皇	-10.1749
寄	-10.175
つけ	-10.1758
ワイン	-10.1764
数字	-10.1766
なぜか	-10.1771
▁R	-10.1787
ているので	-10.1787
待ち	-10.179
どうして	-10.179
らせ	-10.1805
ッ	-10.1807
くなります	-10.1815
赤ちゃん	-10.1826
奇	-10.1828
推	-10.1831
たぶん	-10.1844
というのも	-10.1846
届け	-10.1847
いつ	-10.1847
わからない	-10.185
るほど	-10.1851
▁class	-10.1852
▁under	-10.1852
のでしょう	-10.1856
調子	-10.1857
ありがとう	-10.1857
姫	-10.1862
オススメ	-10.1867
すっかり	-10.1872
駐車	-10.188
はじめ	-10.1887
または	-10.1896
都合	-10.1897
のではないかと	-10.1901
してくれた	-10.1904
ザ	-10.1907
首相	-10.1908
致し	-10.1909
工場	-10.1912
軽く	-10.1913
いたり	-10.1929
アイテム	-10.1937
▁G	-10.1939
パターン	-10.1949
▁consider	-10.1953
いただけ	-10.1957
コミュニケーション	-10.1958
▁n	-10.1959
▁re	-10.1972
やかな	-10.1972
バカ	-10.1978
をかけて	-10.1985
僚	-10.1987
二つ	-10.1988
証明	-10.1994
長期	-10.1997
▁As	-10.1999
いのは	-10.202
緩	-10.2025
になっていた	-10.2025
遇	-10.2025
▁system	-10.2029
わけで	-10.2032
▁help	-10.2039
太陽	-10.2042
売れ	-10.2042
六	-10.2058
悲	-10.2058
ベスト	-10.2061
じゃあ	-10.2063
七	-10.2065
煙	-10.2068
out	-10.2068
するので	-10.2068
畑	-10.2074
設計	-10.2075
燥	-10.2075
広告	-10.2079
多少	-10.2086
砂	-10.2086
analysis	-10.2089
ことから	-10.2096
らなかった	-10.2099
コード	-10.2099
ますよね	-10.2105
▁results	-10.2105
濃	-10.2109
蔵	-10.2113
拝	-10.2119
謎	-10.2121
電気	-10.2122
原発	-10.2131
▁factor	-10.2144
学び	-10.2145
▁print	-10.2146
の間に	-10.2154
なん	-10.2154
手伝	-10.2158
貢	-10.2158
frac	-10.2159
地区	-10.216
雑誌	-10.2164
シ	-10.2165
サ	-10.2166
どこに	-10.217
得意	-10.2172
無し	-10.2173
』(	-10.2177
りません	-10.2177
井	-10.219
るだけ	-10.2191
たけど	-10.2192
▁those	-10.2196
福岡	-10.2199
てもらう	-10.2204
占い	-10.2205
焦	-10.2214
明治	-10.2215
▁●	-10.2217
男子	-10.2219
ビル	-10.2219
基づ	-10.2227
▁何	-10.2233
～」	-10.2233
随	-10.2245
▁These	-10.2249
弟	-10.2252
になること	-10.2254
実験	-10.2254
ation	-10.2255
りに	-10.2267
還	-10.2268
ってきます	-10.2268
ないでしょう	-10.2272
泣	-10.2273
演じ	-10.2273
これだけ	-10.2278
釈	-10.2286
たとき	-10.2292
スペース	-10.2292
控え	-10.2313
それだけ	-10.2316
キャラクター	-10.2324
生じ	-10.2325
安く	-10.2326
鑑	-10.2326
け	-10.2327
攻	-10.2333
雲	-10.2342
になれ	-10.2346
喜び	-10.2356
痛い	-10.2358
態度	-10.2367
詩	-10.2369
犯罪	-10.237
あくまで	-10.2372
冒	-10.2379
杯	-10.2382
をもって	-10.2383
どうぞ	-10.2383
ないこと	-10.239
そうと	-10.239
越し	-10.2396
▁だから	-10.2404
かわいい	-10.2404
細胞	-10.2407
勢い	-10.241
仏	-10.2414
券	-10.2422
通信	-10.2424
▁else	-10.2425
ですけど	-10.2427
エリア	-10.2431
らが	-10.2441
何と	-10.2441
とおり	-10.2444
狭	-10.2469
協会	-10.2475
っているので	-10.2479
誠	-10.2482
▁f	-10.2483
アドバイス	-10.2486
圧倒	-10.2493
だったり	-10.2496
会長	-10.2504
とっても	-10.2505
硬	-10.2508
賃	-10.2511
せる	-10.2513
かせ	-10.2516
気付	-10.2525
項目	-10.2527
本気	-10.2537
コスト	-10.2541
知らせ	-10.2542
応じ	-10.255
▁effect	-10.2553
▁result	-10.2553
男女	-10.256
履	-10.2566
勝ち	-10.2572
仰	-10.2576
けっこう	-10.258
黙	-10.2582
これからも	-10.2586
こっち	-10.2586
背中	-10.2587
もっとも	-10.2589
▁None	-10.2591
江戸	-10.2605
▁expression	-10.2614
るのだ	-10.2617
FX	-10.2626
せない	-10.2628
嫁	-10.2636
っていること	-10.2641
いながら	-10.2649
かかり	-10.2654
からね	-10.2656
上手く	-10.2656
set	-10.2658
敷	-10.2663
エ	-10.2663
▁patients	-10.2666
奮	-10.2669
評判	-10.2673
～!	-10.2676
るのに	-10.2681
我慢	-10.2682
衣	-10.2689
ってお	-10.2696
▁まず	-10.2697
貰	-10.2699
候	-10.2702
第二	-10.2709
一切	-10.271
type	-10.2713
儀	-10.2714
披露	-10.2719
サン	-10.2729
ム	-10.2732
男の	-10.2732
ローン	-10.2733
んだり	-10.2742
▁y	-10.2742
▁et	-10.2748
▁当	-10.2748
ロ	-10.2751
誕生日	-10.2758
だけに	-10.2763
▁N	-10.2764
脇	-10.2767
盗	-10.2768
レストラン	-10.277
CM	-10.2778
をしていた	-10.2782
カラー	-10.2785
徹底	-10.2785
くなって	-10.2788
塗	-10.2792
ってくれる	-10.2793
闇	-10.2796
飼	-10.2798
共同	-10.28
請求	-10.2801
▁non	-10.2802
することに	-10.2803
関心	-10.281
お茶	-10.2814
龍	-10.2818
がよく	-10.2819
次回	-10.282
がん	-10.2826
祭り	-10.2827
自治	-10.2829
レ	-10.2837
st	-10.2837
易	-10.2838
タイム	-10.2841
そば	-10.2843
前後	-10.2844
・・・」	-10.2854
www	-10.2854
ぼく	-10.2855
風景	-10.2857
復活	-10.2858
='	-10.2859
こともある	-10.286
投げ	-10.2861
^^	-10.2868
イン	-10.287
かね	-10.287
流行	-10.2873
伸ば	-10.289
麻	-10.2892
越え	-10.2893
...」	-10.2898
ちゃんの	-10.2899
空港	-10.291
沈	-10.2914
独立	-10.2923
▁ー	-10.2924
ミス	-10.2925
推進	-10.2929
把	-10.2934
▁based	-10.2948
▁small	-10.2948
日曜	-10.295
ion	-10.2952
バック	-10.2954
list	-10.2957
▁un	-10.2958
▁before	-10.2962
はほとんど	-10.2963
具合	-10.2964
なるほど	-10.297
イギリス	-10.2971
うことが	-10.2973
帳	-10.2979
うち	-10.2979
銀	-10.2981
想い	-10.2982
るとき	-10.2989
減ら	-10.2992
バイト	-10.2994
激し	-10.2995
いよいよ	-10.2996
キ	-10.3006
荷物	-10.3029
てきます	-10.3034
視聴	-10.3035
雄	-10.3039
一回	-10.3047
やった	-10.306
▁▁▁▁▁▁▁	-10.3063
脂肪	-10.3063
デ	-10.3064
尻	-10.3068
偶	-10.3096
ガス	-10.3098
不可	-10.3101
▁group	-10.3102
るはず	-10.3103
枠	-10.3103
ゴミ	-10.3108
抜き	-10.3113
でしょうね	-10.3126
遠く	-10.3129
リリース	-10.313
セフレ	-10.3138
作家	-10.3138
匹	-10.3138
▁L	-10.3142
建て	-10.3142
カレー	-10.3146
▁By	-10.3148
ぜ	-10.3148
会い	-10.3153
危機	-10.3156
かったので	-10.3158
それにしても	-10.3159
からだ	-10.3164
雇用	-10.3167
機械	-10.317
トレーニング	-10.3172
たまに	-10.3173
▁cell	-10.3176
港	-10.3179
事務	-10.3181
誇	-10.3182
亡くな	-10.3183
紅	-10.3184
ゴール	-10.3195
ていき	-10.3196
もあって	-10.3197
▁includ	-10.3197
当た	-10.3201
てみた	-10.3204
▁because	-10.3205
憲法	-10.3208
ネ	-10.3208
TV	-10.3209
るところ	-10.3209
務め	-10.3225
q	-10.3236
明け	-10.3241
衆	-10.3242
云	-10.3244
気も	-10.325
組み合わせ	-10.3254
なんとなく	-10.326
ためには	-10.3261
戦闘	-10.3267
又	-10.3273
オリジナル	-10.3273
羽	-10.3281
たかった	-10.3287
索	-10.3289
婦	-10.329
依	-10.3295
番号	-10.3302
▁human	-10.3305
ジ	-10.3306
かというと	-10.3307
プラス	-10.3312
製造	-10.3313
ロック	-10.3315
パワー	-10.3318
ころ	-10.3321
▁values	-10.3324
トレード	-10.3327
弁当	-10.3332
改革	-10.3342
▁次	-10.3342
なんですが	-10.3345
郎	-10.3347
響	-10.3348
一杯	-10.3349
▁following	-10.3352
安倍	-10.3361
鳴	-10.3362
誌	-10.3364
カット	-10.3366
しているので	-10.3369
湖	-10.3371
紫	-10.3373
▁range	-10.338
メートル	-10.3383
いたこと	-10.3391
んな	-10.3395
ω	-10.3398
運用	-10.3399
あんまり	-10.3408
くなり	-10.3408
れていた	-10.3411
プラン	-10.3421
しろ	-10.3424
いきます	-10.3424
することも	-10.3428
繋が	-10.343
おります	-10.3432
広島	-10.3433
パ	-10.3438
しておき	-10.3438
熟	-10.344
生物	-10.3446
高ま	-10.3447
")	-10.3449
巡	-10.3452
烈	-10.3458
ヤ	-10.3464
置き	-10.3467
▁type	-10.3473
連携	-10.3475
一言	-10.3488
あらゆる	-10.3493
詳しく	-10.3493
豚	-10.3497
してほしい	-10.3503
するように	-10.352
わけではない	-10.352
あげ	-10.3523
▁form	-10.3525
寄せ	-10.3531
▁K	-10.3537
cc	-10.3541
おかしい	-10.355
久	-10.3553
ながらも	-10.3554
豊富	-10.3555
わずか	-10.3558
":	-10.3563
圏	-10.3568
馬鹿	-10.3573
ラン	-10.3574
てしまい	-10.3581
講座	-10.3584
▁method	-10.3589
○	-10.3591
▁known	-10.3594
だね	-10.3604
▁even	-10.3604
落と	-10.3605
遭	-10.3606
訴え	-10.3612
いただいて	-10.3617
インド	-10.3619
卒	-10.3622
▁being	-10.3625
免	-10.363
▁Step	-10.363
たっぷり	-10.3632
津	-10.3633
支配	-10.3636
明る	-10.364
皮膚	-10.3655
ホント	-10.3658
取り上げ	-10.3658
ませんか	-10.3659
うのは	-10.366
広く	-10.366
也	-10.366
そういうこと	-10.3666
てみました	-10.3671
ておき	-10.3673
営業	-10.3674
ないのです	-10.3674
▁make	-10.3677
警	-10.3682
いけど	-10.3684
してくる	-10.3685
いか	-10.3686
留	-10.3687
▁studie	-10.3688
るなら	-10.3689
ゼロ	-10.369
てくれました	-10.369
一定	-10.3691
痩せ	-10.3701
ありませんでした	-10.3701
キー	-10.3702
噂	-10.3703
だけではなく	-10.3705
ってました	-10.3708
レス	-10.371
送り	-10.3711
っこ	-10.3718
柱	-10.3723
閉	-10.3728
▁「......	-10.3733
走り	-10.3734
ドア	-10.3738
留学	-10.3742
破壊	-10.3744
フ	-10.3745
微妙	-10.3748
晴れ	-10.3751
広げ	-10.3753
るだけで	-10.3755
慎	-10.376
ers	-10.3762
デビュー	-10.3767
できなかった	-10.3769
昇	-10.377
こともあります	-10.377
かけて	-10.377
いのです	-10.3771
ベッド	-10.3781
DVD	-10.3782
▁specific	-10.3788
知り合	-10.3795
発行	-10.3797
生命	-10.3811
泣き	-10.3812
いし	-10.3813
裁	-10.3816
免許	-10.3819
唱	-10.382
人材	-10.3831
シンプル	-10.3834
できること	-10.3838
一歩	-10.3841
衝撃	-10.3846
がたくさん	-10.3851
独自	-10.3852
ったとき	-10.3852
言語	-10.3859
テ	-10.3859
睡眠	-10.3859
▁name	-10.3861
風邪	-10.3861
▁American	-10.3862
鏡	-10.3863
])	-10.3864
▁individual	-10.387
統	-10.3884
陸	-10.3884
誕生	-10.3887
飛行機	-10.3888
徳	-10.389
▁第	-10.3893
読め	-10.3893
模様	-10.3893
演出	-10.3902
やめ	-10.3904
ガン	-10.3911
枝	-10.3913
恥ずかし	-10.3915
コーナー	-10.3916
▁&	-10.3919
▁process	-10.3932
対処	-10.3935
煮	-10.3947
死に	-10.3947
▁point	-10.3958
信用	-10.3961
いですが	-10.3962
が付	-10.3965
わかり	-10.3965
▁genes	-10.3966
time	-10.3967
国会	-10.3967
ガ	-10.3971
▁%	-10.3972
▁given	-10.3975
邪魔	-10.3981
偽	-10.3986
▁include	-10.3986
▁us	-10.3987
徴	-10.3987
書類	-10.399
ってしまいました	-10.399
いつか	-10.3998
とお	-10.4001
というより	-10.4005
芸術	-10.4006
ボタン	-10.4014
それと	-10.4015
稿	-10.4023
してみる	-10.4024
▁total	-10.4024
ness	-10.4029
偏	-10.4033
トン	-10.4036
▁de	-10.4044
▁information	-10.4044
尿	-10.4044
をつく	-10.4045
薬局	-10.4047
指示	-10.4047
▁protein	-10.4053
魂	-10.4058
ているのか	-10.4062
mm	-10.407
台湾	-10.4071
というような	-10.408
たのですが	-10.4082
ルート	-10.4088
かか	-10.4093
乗せ	-10.4101
▁part	-10.4103
がとても	-10.4113
珍し	-10.4114
どっち	-10.4114
クリア	-10.4116
ないのですが	-10.4117
郷	-10.4119
ならず	-10.4119
ダンス	-10.4122
改正	-10.4127
オレ	-10.4133
植	-10.4134
認定	-10.4155
飾	-10.4161
災	-10.4164
任せ	-10.4172
いれば	-10.4175
滞	-10.4176
だとか	-10.418
▁まあ	-10.4181
秀	-10.4184
もらう	-10.4185
講演	-10.4185
セ	-10.4185
早め	-10.4189
にかけて	-10.4201
りと	-10.4207
ひ	-10.4208
拒	-10.4214
両方	-10.4219
ワン	-10.4223
専用	-10.4242
上司	-10.4243
リアル	-10.4247
皇	-10.4249
ないといけない	-10.4249
保証	-10.4253
取り入れ	-10.4264
全身	-10.4268
するような	-10.4274
るだろう	-10.4281
果た	-10.4282
んだろう	-10.4291
アクセス	-10.4293
棒	-10.4296
._	-10.43
人数	-10.4305
初心	-10.4308
時々	-10.4319
こうして	-10.4321
極め	-10.4325
植え	-10.4329
スープ	-10.433
農業	-10.4334
狂	-10.4336
訓練	-10.4342
災害	-10.4343
えない	-10.4343
劣	-10.4352
昨	-10.4355
取って	-10.4356
呼ぶ	-10.436
▁per	-10.4361
落とし	-10.4362
そうした	-10.4364
▁新	-10.4365
はよく	-10.4365
でもない	-10.4365
ヨーロッパ	-10.4369
満た	-10.4376
なくなり	-10.4378
size	-10.4379
はちょっと	-10.4386
膝	-10.4388
']	-10.44
);	-10.4411
暇	-10.4415
繁	-10.4417
▁design	-10.4417
屈	-10.4423
さと	-10.4434
ヒット	-10.4435
辞	-10.4435
江	-10.4444
っているの	-10.445
溢れ	-10.4452
北朝鮮	-10.4457
てほしい	-10.446
鍋	-10.4464
市内	-10.4464
肢	-10.4469
しないで	-10.447
▁現在	-10.4471
インタビュー	-10.4476
キャリア	-10.448
ランチ	-10.4484
認知	-10.4485
て来	-10.4485
備え	-10.4487
芸能	-10.4488
ないのに	-10.449
▁complex	-10.4494
▁こんな	-10.4497
ハ	-10.4499
せば	-10.4499
▁user	-10.4503
恐怖	-10.4504
}{	-10.4507
わざわざ	-10.451
大手	-10.4517
まれる	-10.4522
やっている	-10.4527
はどこ	-10.453
発揮	-10.4531
応え	-10.4531
’	-10.4539
チャレンジ	-10.4543
向こう	-10.4545
クリーム	-10.455
陥	-10.4556
行か	-10.4557
ついて	-10.4562
シャツ	-10.4565
怒り	-10.4567
左右	-10.4568
▁large	-10.4574
崎	-10.4574
いだ	-10.4579
講師	-10.4579
防止	-10.458
▁common	-10.458
富	-10.458
きた	-10.4583
ショップ	-10.4592
ならない	-10.4596
浴	-10.4596
んだよ	-10.4602
培	-10.4602
況	-10.4608
恐れ	-10.4608
汚れ	-10.4611
氷	-10.4616
ちゃんが	-10.4616
▁He	-10.4617
メ	-10.4618
ということが	-10.4625
名古屋	-10.4638
池	-10.4638
持た	-10.4639
寂し	-10.464
ていません	-10.464
text	-10.4643
見つめ	-10.4646
徐々	-10.4646
勝負	-10.4648
▁file	-10.4648
マンション	-10.4653
陰	-10.4655
ミ	-10.4659
不満	-10.4659
浮か	-10.4665
----------------	-10.4668
替え	-10.4669
リー	-10.467
耐	-10.4678
横浜	-10.4686
似た	-10.4694
練	-10.4694
鮮	-10.4699
!!」	-10.4705
紹	-10.4706
おうと	-10.4708
ましたね	-10.4709
腸	-10.471
竜	-10.4713
道具	-10.4714
避	-10.4714
チ	-10.4715
気軽	-10.4716
NHK	-10.4722
エンジン	-10.4723
どもの	-10.4724
パーティー	-10.4728
ところです	-10.4729
世間	-10.4734
設立	-10.4735
もしくは	-10.4736
揚げ	-10.474
育成	-10.4744
歓	-10.4745
レッスン	-10.475
ホール	-10.4751
ってください	-10.4752
匂	-10.4753
ケーキ	-10.4754
となると	-10.4754
停	-10.4757
獣	-10.4758
at	-10.4764
心地	-10.4765
▁due	-10.4773
▁sequence	-10.4777
償	-10.478
定め	-10.478
職業	-10.4788
聞か	-10.4789
抵抗	-10.4792
微	-10.4792
ラジオ	-10.4802
小さく	-10.4804
かしら	-10.4808
成立	-10.4812
欧	-10.4814
ございます	-10.4814
濯	-10.4815
になってしまう	-10.4816
払い	-10.4817
years	-10.4819
見直	-10.482
細か	-10.4824
▁X	-10.4825
投票	-10.4825
買え	-10.4827
封	-10.4832
▁let	-10.4832
▁way	-10.4837
▁gene	-10.4844
ブ	-10.4849
組み	-10.485
概	-10.485
葬	-10.4853
竹	-10.4857
仕組	-10.4857
file	-10.4858
定義	-10.4873
何でも	-10.4874
執	-10.4881
The	-10.4881
銃	-10.4882
岸	-10.4898
」、「	-10.4901
土曜	-10.4902
になってしまった	-10.4905
塾	-10.4909
▁represent	-10.4914
速度	-10.4916
覆	-10.4918
心が	-10.4922
返し	-10.4923
▁just	-10.4929
いえば	-10.4931
脂	-10.4931
受け取	-10.4935
猛	-10.4936
わかります	-10.4937
▁case	-10.4942
騒	-10.4945
確定	-10.4948
のことです	-10.4956
れました	-10.4959
マジ	-10.4965
みんなで	-10.4966
アン	-10.4967
フル	-10.497
ニ	-10.4973
ことがある	-10.4977
イタリア	-10.4977
栄	-10.4979
偉	-10.498
軸	-10.4998
カバー	-10.4999
込め	-10.4999
わかった	-10.5
`)	-10.5001
フリー	-10.5003
令	-10.5008
刊	-10.501
http	-10.5012
デート	-10.502
ally	-10.5022
がなく	-10.5027
いかに	-10.503
code	-10.5034
呼吸	-10.5034
▁important	-10.505
▁numbers	-10.505
気味	-10.5056
のではないか	-10.506
兄弟	-10.506
パス	-10.506
浸	-10.5061
ときには	-10.5063
もまた	-10.5063
クリスマス	-10.5066
捉え	-10.5066
するのか	-10.5067
籍	-10.5072
いてる	-10.5074
カー	-10.5075
舎	-10.5086
それとも	-10.5097
てみよう	-10.5102
みの	-10.5103
ウ	-10.5104
ないか	-10.5105
株式会社	-10.5111
アイドル	-10.5119
だったの	-10.5121
▁people	-10.5122
kg	-10.5125
さっき	-10.5127
▁find	-10.513
がないと	-10.5134
飽き	-10.5136
リーダー	-10.5141
舞	-10.5143
入学	-10.5146
気の	-10.5146
迎	-10.5148
ができます	-10.5149
マーク	-10.5149
ハイ	-10.5154
教会	-10.5154
撤	-10.5161
灯	-10.5163
はあります	-10.5165
リスト	-10.5165
▁いや	-10.5168
にもかかわらず	-10.5169
ちゃう	-10.5177
逮捕	-10.5184
見学	-10.5184
▁difference	-10.5185
モード	-10.5185
ケ	-10.5191
▁similar	-10.5196
あったり	-10.5202
by	-10.5202
粋	-10.5204
寄り	-10.5212
ようなこと	-10.5213
▁since	-10.5227
みが	-10.5227
渋	-10.5244
▁彼	-10.5245
ピアノ	-10.5251
▁several	-10.5252
皿	-10.5254
糸	-10.5255
バラ	-10.5261
裁判	-10.5267
HP	-10.5274
潮	-10.5274
なんだけど	-10.5279
規定	-10.528
もありました	-10.528
ディ	-10.5281
▁t	-10.5285
せいか	-10.529
てお	-10.5292
たちも	-10.5296
▁called	-10.5301
棚	-10.5304
大型	-10.5308
サイト	-10.531
付近	-10.5315
スター	-10.532
セミナー	-10.5323
拡	-10.5326
▁might	-10.5338
ってしまいます	-10.5339
形成	-10.5342
叩	-10.5343
航	-10.5351
保障	-10.5351
梅	-10.5358
▁end	-10.536
ティ	-10.5363
刀	-10.5364
議会	-10.5365
坊	-10.5367
りたい	-10.5369
販	-10.5375
いですよね	-10.5376
してみました	-10.5378
▁great	-10.5379
潜	-10.5384
▁without	-10.5386
敏	-10.539
変わら	-10.539
レシピ	-10.5393
してみた	-10.5398
▁various	-10.5404
append	-10.5409
ないよう	-10.5416
幼稚園	-10.5416
飼い	-10.5425
生み出	-10.5426
之	-10.5433
夜の	-10.5437
喫	-10.5443
やりたい	-10.5446
如	-10.5448
挙	-10.5451
なんでも	-10.5452
引っ越	-10.5456
▁perform	-10.5456
せよ	-10.5459
耐え	-10.5459
緊急	-10.5472
差し	-10.5473
整え	-10.5475
にご	-10.5478
ないのか	-10.548
たった	-10.5481
せて	-10.5482
▁among	-10.5483
リン	-10.5484
▁$\	-10.549
戻り	-10.5494
泉	-10.5496
ちゃんは	-10.5497
むと	-10.5497
なことを	-10.5501
懐かし	-10.5501
グ	-10.5503
俗	-10.5505
▁}	-10.5509
ーっ	-10.5516
のことは	-10.5519
土産	-10.552
受賞	-10.5522
▁made	-10.5528
重視	-10.5535
児童	-10.5541
かなと	-10.5546
ビ	-10.555
▁list	-10.5551
みます	-10.5553
てみましょう	-10.5555
あまりにも	-10.5557
設け	-10.5561
もらえる	-10.5561
▁population	-10.5566
ないような	-10.557
してしまいました	-10.5582
じゃん	-10.5582
ふと	-10.5585
れません	-10.559
!(	-10.5597
継	-10.5606
たいです	-10.561
胃	-10.5615
栽	-10.5617
▁ちょっと	-10.5619
できるように	-10.5622
どころ	-10.5627
▁my	-10.5629
チケット	-10.5636
方面	-10.5639
▁最後	-10.5641
許可	-10.5644
▁variable	-10.5649
ショック	-10.5653
ゆく	-10.5653
▁general	-10.5654
IT	-10.5655
優れ	-10.5659
お子	-10.5669
ってみた	-10.5669
貯	-10.5669
貼	-10.5673
単位	-10.568
劇場	-10.5681
墓	-10.5686
関西	-10.5697
普及	-10.57
たのが	-10.5703
▁potential	-10.571
民族	-10.571
没	-10.571
関東	-10.5711
なくなって	-10.5718
んでみ	-10.5719
航空	-10.5721
主婦	-10.5722
ったのです	-10.5728
総理	-10.573
▁J	-10.5733
恵	-10.5734
といえ	-10.5736
▁特	-10.5738
っきり	-10.5745
やや	-10.5745
ギター	-10.5747
いただく	-10.575
したところ	-10.5756
ID	-10.5758
てもらった	-10.5761
一本	-10.5763
時半	-10.5764
結論	-10.5768
▁W	-10.5768
よー	-10.5768
書き込	-10.5771
癖	-10.5777
自民党	-10.5777
盛り	-10.5784
たまま	-10.5784
▁あの	-10.5785
たいという	-10.5787
地下	-10.5792
地図	-10.5792
譲	-10.5793
なかで	-10.5793
▁possible	-10.5797
書籍	-10.5801
▁U	-10.5803
知っ	-10.5803
模	-10.5803
の水	-10.5805
もありません	-10.5807
リング	-10.5807
いたい	-10.5812
コントロール	-10.5815
鶏	-10.5826
▁current	-10.5828
休憩	-10.5837
アート	-10.5837
呼び	-10.5839
蓄	-10.5841
させられ	-10.5846
んでき	-10.5849
穏	-10.585
le	-10.5856
に従	-10.5857
療法	-10.5861
ch	-10.5865
▁あ	-10.5866
ところに	-10.5872
▁structure	-10.5876
出版	-10.5879
プレー	-10.5886
▁present	-10.5895
味噌	-10.5895
だいたい	-10.5897
隠れ	-10.5904
中学	-10.5904
延	-10.5917
さんから	-10.5921
videos	-10.5929
兆	-10.593
▁second	-10.5937
▁他	-10.5943
ペース	-10.5944
シート	-10.5949
いなかった	-10.5949
str	-10.5954
▁become	-10.5968
列車	-10.5968
手間	-10.5968
悔し	-10.5972
モ	-10.5973
▁role	-10.5975
ブログ	-10.5984
回転	-10.5985
思想	-10.5989
るけど	-10.599
もはや	-10.5994
孫	-10.5995
ガラス	-10.5997
▁often	-10.5998
理論	-10.6
こともあり	-10.6005
てくれます	-10.6007
▁▁▁▁▁▁	-10.6009
下り	-10.6011
ピンク	-10.6015
特殊	-10.6017
▁You	-10.6023
吐	-10.6029
▁health	-10.603
勇気	-10.6031
理事	-10.6034
話し合	-10.6034
てしまって	-10.6037
役に立	-10.6046
▁previous	-10.6048
顧	-10.6055
義務	-10.6057
だいぶ	-10.6062
いらっしゃる	-10.6068
▁does	-10.6069
鍵	-10.6072
叫	-10.6075
▁control	-10.6075
候補	-10.6079
▁describe	-10.6082
になったら	-10.6083
るよう	-10.6086
促	-10.609
岡	-10.6097
なるべく	-10.6098
民間	-10.6098
府	-10.61
as	-10.6102
俳優	-10.6102
恩	-10.6102
としている	-10.6107
翻	-10.6108
孤	-10.611
真実	-10.6113
わかりやす	-10.6118
かけた	-10.6123
そのうち	-10.6132
貸	-10.6133
コレ	-10.6134
表面	-10.6134
さすが	-10.6134
仁	-10.6135
をしてい	-10.6138
のかもしれない	-10.6139
相変わら	-10.6158
なところ	-10.6165
違和	-10.6172
サイド	-10.6173
血液	-10.6176
オフ	-10.6177
駆	-10.6177
もらいました	-10.618
▁order	-10.6182
のことで	-10.6189
なきゃ	-10.6193
手が	-10.6199
ありがたい	-10.6202
添	-10.6203
舌	-10.6205
処方	-10.6207
ブラック	-10.6208
やがて	-10.621
楽器	-10.6212
あったら	-10.6218
祝い	-10.6221
貧	-10.6222
組合	-10.6229
array	-10.6233
網	-10.6234
壊れ	-10.6238
アーティスト	-10.6239
占め	-10.6246
▁response	-10.6254
になるので	-10.6255
よそ	-10.6264
福祉	-10.6269
▁When	-10.6269
ボランティア	-10.6272
吹	-10.6273
東京都	-10.6275
either	-10.6277
緒	-10.6282
雅	-10.6285
▁world	-10.6288
ったところ	-10.6289
▁real	-10.6295
がち	-10.6305
車両	-10.6306
詰め	-10.6309
田舎	-10.631
活性	-10.631
まない	-10.6312
侵	-10.6317
None	-10.6322
もらえ	-10.6324
倒れ	-10.6326
シー	-10.633
らん	-10.6341
学園	-10.6344
お父	-10.6347
憧れ	-10.6356
ではなかった	-10.6362
っていたので	-10.6362
▁single	-10.6368
あたし	-10.6369
ピン	-10.6369
基地	-10.6374
レポート	-10.6374
停止	-10.6378
票	-10.6378
片付け	-10.6378
プ	-10.6379
ボ	-10.6387
贈	-10.6387
▁change	-10.6388
製作	-10.639
翼	-10.6397
ファッション	-10.6401
▁V	-10.6402
レビュー	-10.6407
間違え	-10.6408
▁state	-10.6409
並べ	-10.641
いつでも	-10.6414
▁around	-10.6416
▁equation	-10.6418
哲	-10.6418
九州	-10.6423
不要	-10.644
知らず	-10.6445
岳	-10.6447
int	-10.6455
どうやって	-10.646
九	-10.6467
高速	-10.6468
サプリ	-10.6469
焼け	-10.6471
伝説	-10.6475
希	-10.6476
ったけど	-10.6478
防衛	-10.6481
ツ	-10.6481
アレ	-10.6484
抽	-10.6486
たか	-10.6486
リズム	-10.6492
▁want	-10.6493
いため	-10.6493
育児	-10.65
▁subject	-10.6503
看板	-10.6504
ブーム	-10.6505
マイナス	-10.6512
演技	-10.6518
▁◆	-10.6529
ハマ	-10.6531
じゃないですか	-10.6533
してみ	-10.6535
といいます	-10.6544
銭	-10.6546
ばかりで	-10.655
かず	-10.6554
璧	-10.6559
京	-10.6562
長官	-10.6562
ソース	-10.6562
キャンプ	-10.6564
というわけで	-10.6571
コンサート	-10.6575
ハウス	-10.6581
戦後	-10.6582
はじめて	-10.6584
▁right	-10.6589
こいつ	-10.6589
中学生	-10.6593
爪	-10.6595
新幹線	-10.6597
切な	-10.6598
くる	-10.6598
込	-10.6602
新鮮	-10.661
▁•	-10.6612
よし	-10.6614
▁provide	-10.6616
競争	-10.6621
?)	-10.6624
未だ	-10.6625
らしいです	-10.6627
競技	-10.6632
コンビニ	-10.6635
越	-10.6639
associated	-10.6642
ではある	-10.6642
箇所	-10.6642
予測	-10.6643
まさか	-10.6646
扉	-10.665
探偵	-10.6652
神戸	-10.6655
ソ	-10.6658
正月	-10.666
マンガ	-10.666
はどんな	-10.6663
けどね	-10.6663
たまたま	-10.6665
二度	-10.6667
デジタル	-10.6674
暖か	-10.6677
はいつも	-10.6678
um	-10.6679
▁size	-10.6681
智	-10.6689
並み	-10.669
それでは	-10.6691
頂け	-10.6697
JR	-10.6697
需要	-10.6701
**	-10.6702
申し込	-10.6702
ちょっとした	-10.6703
招	-10.6704
してしまい	-10.6705
艦	-10.6706
▁確か	-10.6711
曲が	-10.6715
ればいい	-10.6717
ないのだ	-10.672
▁see	-10.672
アリ	-10.672
がつい	-10.6722
優しく	-10.6726
たのだ	-10.6733
護	-10.6738
ゲスト	-10.6739
▁もし	-10.674
ライト	-10.6745
替	-10.6748
荒	-10.6748
大体	-10.6748
さず	-10.675
朝鮮	-10.6752
うえ	-10.6759
漁	-10.676
パート	-10.6766
▁e	-10.6767
げ	-10.6768
真面目	-10.6771
report	-10.6774
▁problem	-10.678
接続	-10.678
るということ	-10.6782
▁朝	-10.679
あるのです	-10.679
勝て	-10.6792
▁本当	-10.6792
序	-10.6793
に当た	-10.6804
True	-10.6808
てこ	-10.681
関節	-10.6811
ショー	-10.6811
部門	-10.6816
ではないか	-10.682
んでる	-10.6825
浜	-10.6827
恐	-10.683
従業	-10.683
針	-10.6837
年金	-10.684
ホルモン	-10.684
▁try	-10.6843
奈	-10.6848
実力	-10.685
盆	-10.6857
補助	-10.6859
博	-10.6862
るようになる	-10.6865
なんだろう	-10.6867
▁皆	-10.6872
駄目	-10.6877
あっという間	-10.6882
オリンピック	-10.6886
▁area	-10.6886
▁down	-10.6898
ダウン	-10.6901
穫	-10.6902
▁例	-10.6903
▁must	-10.6906
腐	-10.6906
したがって	-10.6914
診療	-10.6917
匠	-10.692
磨	-10.6921
をかける	-10.6927
ゴ	-10.693
ブロック	-10.693
活か	-10.6937
第三	-10.694
巻き	-10.6943
ビデオ	-10.6943
セックス	-10.6943
▁back	-10.6944
某	-10.6944
署	-10.6946
殆	-10.6952
▁There	-10.6952
もしかしたら	-10.6952
滑	-10.6954
るのですが	-10.6955
のほか	-10.6956
まち	-10.6956
あー	-10.696
value	-10.6961
応募	-10.6962
▁So	-10.6966
加減	-10.6967
▁一方	-10.6967
ご存	-10.6968
ブルー	-10.6972
～～	-10.6973
カップ	-10.6987
出せ	-10.6991
ネットワーク	-10.6993
用者	-10.6994
売買	-10.6995
のもと	-10.6995
図書館	-10.6999
〉	-10.7
うまい	-10.7
スポット	-10.7006
タン	-10.7006
てみてください	-10.7007
遺伝	-10.7008
▁research	-10.7012
こういっ	-10.7012
ダメージ	-10.7014
専	-10.7015
公共	-10.7016
独特	-10.7017
だんだん	-10.7018
▁development	-10.7022
粒	-10.703
`	-10.703
占	-10.7031
連休	-10.7034
疲	-10.7035
やってきた	-10.7035
わけだ	-10.7036
道の	-10.7039
守り	-10.7042
彦	-10.705
たことが	-10.7051
回収	-10.7052
口座	-10.7052
オンライン	-10.7055
に立	-10.7058
〈	-10.7061
▁d	-10.7062
潔	-10.7065
所得	-10.7068
避難	-10.7069
なければいけない	-10.7077
▁まだ	-10.7079
協議	-10.7083
—	-10.7084
▁did	-10.7088
ニキビ	-10.7094
作戦	-10.7096
エロ	-10.71
トレ	-10.7102
あえて	-10.7102
メモ	-10.7104
青年	-10.7108
帝	-10.711
ついでに	-10.7115
▁Now	-10.7115
久々	-10.7119
▁level	-10.7124
たくて	-10.7125
アルバイト	-10.7126
じゃないか	-10.7126
再開	-10.7129
ジャンル	-10.7131
リア	-10.7131
はなかった	-10.7135
になるの	-10.7141
いつもの	-10.7143
▁her	-10.7147
テロ	-10.7148
却	-10.7152
▁every	-10.7155
往	-10.7157
遅く	-10.7158
ry	-10.7166
いたので	-10.7166
▁particular	-10.7168
man	-10.7171
うどん	-10.7172
浴び	-10.7172
中止	-10.7178
新宿	-10.7187
屋根	-10.7187
滞在	-10.719
いった	-10.7191
ve	-10.7196
ビックリ	-10.72
延長	-10.7201
足り	-10.7202
▁最初	-10.7204
晴	-10.7206
コツ	-10.7216
てもらえ	-10.7219
アイデア	-10.7224
受付	-10.7225
殖	-10.7227
シングル	-10.7228
ビタミン	-10.7232
尽く	-10.7234
マッサージ	-10.7235
アル	-10.7242
やつ	-10.7246
of	-10.7248
シュ	-10.7251
措置	-10.7252
んでも	-10.7255
▁power	-10.7258
格好	-10.7274
黄色	-10.7278
▁along	-10.7281
アクション	-10.7286
頑張り	-10.729
つながる	-10.7298
釣	-10.7298
サイン	-10.7298
修理	-10.7299
▁very	-10.7303
ゆっくりと	-10.7304
拠点	-10.7305
▁much	-10.7306
いてくれ	-10.731
芽	-10.7312
係	-10.7315
抑	-10.7317
財政	-10.7325
max	-10.7333
▁here	-10.7335
進み	-10.7336
▁positive	-10.7342
パフォーマンス	-10.7342
".	-10.7349
▁now	-10.7351
たりする	-10.7353
しまう	-10.7354
励	-10.7358
はならない	-10.7359
▁levels	-10.736
隠し	-10.736
というふうに	-10.7361
アイ	-10.7365
なにか	-10.7367
恐ろし	-10.7372
身の	-10.7372
ベ	-10.7373
いね	-10.7374
▁public	-10.7375
たところ	-10.7376
たくなる	-10.7379
add	-10.738
開き	-10.7382
key	-10.7384
標準	-10.7384
ごめんなさい	-10.7385
医学	-10.7389
知事	-10.739
ええ	-10.739
ポジション	-10.7396
▁code	-10.7397
▁further	-10.7399
勤め	-10.7401
韓	-10.7402
だけれど	-10.7402
ベル	-10.7403
加工	-10.7404
生か	-10.7406
優秀	-10.7409
つか	-10.741
をあげ	-10.7411
たりして	-10.7416
▁groups	-10.7419
博士	-10.742
毎月	-10.7422
んじゃ	-10.7423
余り	-10.7425
だということ	-10.743
▁relationship	-10.7432
シャンプー	-10.7434
日中	-10.7435
なんですよ	-10.7436
ワーク	-10.7437
ひたすら	-10.7441
おかげで	-10.7441
学者	-10.7442
▁another	-10.7445
▁language	-10.7445
ごはん	-10.7448
▁rate	-10.745
幅広	-10.745
詰ま	-10.745
ともに	-10.7453
▁###	-10.7469
澤	-10.747
▁know	-10.7477
揃	-10.7484
狙い	-10.7488
▁life	-10.749
うか	-10.749
になりたい	-10.749
▁main	-10.749
崩れ	-10.7493
根拠	-10.7493
▁@	-10.7493
通じ	-10.7495
パリ	-10.7497
軍事	-10.7502
ほんの	-10.7503
ゆ	-10.7505
漏れ	-10.7508
ノート	-10.7518
▁ご	-10.7518
やってる	-10.7519
エル	-10.752
パートナー	-10.7523
en	-10.7524
センチ	-10.7526
][	-10.7526
ていたので	-10.7526
マスター	-10.7526
記事	-10.7529
掲げ	-10.753
登山	-10.7531
黄	-10.7534
のなか	-10.7534
東北	-10.7538
ていなかった	-10.754
るようになり	-10.7556
のんびり	-10.7557
ができた	-10.7557
▁develop	-10.7559
るわけ	-10.7562
混ぜ	-10.7562
仕上げ	-10.7563
トラック	-10.7565
今朝	-10.757
資源	-10.7572
アピール	-10.7586
親子	-10.7586
▁treatment	-10.7588
親し	-10.7595
_{	-10.7595
タクシー	-10.7598
まとも	-10.76
エピソード	-10.7603
うつ	-10.7605
済ませ	-10.7606
んでくれ	-10.7608
▁long	-10.761
じっくり	-10.7612
わせ	-10.7618
いものを	-10.7619
るのを	-10.7627
マスク	-10.7628
欠か	-10.763
札幌	-10.7637
攻め	-10.7639
味の	-10.7645
▁create	-10.7648
融資	-10.7652
報酬	-10.7658
冷え	-10.7658
にわた	-10.7659
潤	-10.7662
到	-10.7663
たま	-10.7666
★	-10.7671
部長	-10.7673
あわせ	-10.7675
▁against	-10.7676
すみません	-10.7677
美術館	-10.7677
風の	-10.7682
ないのは	-10.7685
潰	-10.7688
ポ	-10.7693
ひどい	-10.7695
売却	-10.7695
▁early	-10.77
果たし	-10.7702
."	-10.7702
うので	-10.7707
まいり	-10.7714
玄関	-10.7714
ってみました	-10.7715
こだわり	-10.7716
▁obtain	-10.7717
のせい	-10.7719
突っ込	-10.772
天然	-10.7724
らないと	-10.7728
なのでしょう	-10.7739
ったのか	-10.7748
ability	-10.7751
向かい	-10.7751
幾	-10.7752
』『	-10.7757
童	-10.7762
index	-10.7762
踊	-10.7767
▁less	-10.7772
colbert	-10.7775
所有	-10.7776
かかって	-10.7784
化学	-10.7787
べ	-10.7791
びっくり	-10.7792
▁本	-10.7797
たとえ	-10.7803
壇	-10.7812
グッズ	-10.7812
▁O	-10.7818
妄	-10.7822
かなぁ	-10.7822
構え	-10.7823
バージョン	-10.7824
転換	-10.7825
帝国	-10.7826
あっ	-10.7828
はなかなか	-10.7828
悔	-10.7829
お疲れ	-10.783
ソロ	-10.7832
もよく	-10.7837
褒め	-10.784
勇	-10.7842
どころか	-10.7852
惨	-10.7852
会え	-10.7858
あんな	-10.7858
世の	-10.7858
きり	-10.7859
解放	-10.786
ぁ	-10.7861
and	-10.7861
ないよ	-10.7861
てみる	-10.7862
てみたら	-10.7864
暴力	-10.7867
▁express	-10.7868
康	-10.7872
加入	-10.7874
デモ	-10.7874
撮り	-10.7877
縦	-10.7881
なのが	-10.7883
期限	-10.789
np	-10.789
”	-10.789
りますが	-10.7892
の山	-10.7893
▁practice	-10.7894
張り	-10.7899
になりそう	-10.7907
キレイ	-10.7909
郡	-10.791
向い	-10.7911
みな	-10.7911
罰	-10.7914
やかに	-10.7916
パック	-10.792
もつ	-10.7924
▁One	-10.7927
何ら	-10.7932
併	-10.7933
生え	-10.7936
に合	-10.7936
冷た	-10.7937
立ち上が	-10.7938
概念	-10.7939
ほ	-10.7942
プレイヤー	-10.7942
になっても	-10.7943
決勝	-10.7948
仲良く	-10.7951
line	-10.7956
花火	-10.796
できるようにな	-10.7965
面白く	-10.7978
逃	-10.7988
▁disease	-10.7989
鋭	-10.7989
学部	-10.7994
のかもしれません	-10.7995
▁suggest	-10.7995
スキー	-10.7995
こんなこと	-10.7997
▁r	-10.8001
▁k	-10.8002
ペット	-10.8004
椅子	-10.8006
傍	-10.8006
並び	-10.8006
refore	-10.8011
二十	-10.8016
描き	-10.8018
ほんと	-10.8019
シン	-10.8022
うもの	-10.8028
語り	-10.8028
用い	-10.8029
model	-10.8032
test	-10.8033
本書	-10.8036
掘	-10.8038
▁multiple	-10.8038
管理	-10.8039
いますか	-10.8041
▁me	-10.8042
ぶりの	-10.8045
統一	-10.8045
られなかった	-10.8049
▁結	-10.8051
預金	-10.8052
no	-10.8052
大学生	-10.8056
ないだろう	-10.806
っていき	-10.8063
ミニ	-10.8063
▁understanding	-10.8066
調理	-10.8067
だなと	-10.8069
税金	-10.8071
巻き込	-10.8077
▁昔	-10.808
バレ	-10.8084
足りな	-10.8089
山の	-10.8092
ロボット	-10.8101
人形	-10.8107
創造	-10.8107
▁final	-10.8108
正式	-10.8108
もいい	-10.8108
載せ	-10.811
中華	-10.8113
瞳	-10.8115
決まり	-10.8116
肥	-10.8117
珍しく	-10.8118
ゆう	-10.8122
▁明日	-10.8123
それなりに	-10.8125
whether	-10.8126
示し	-10.8129
気配	-10.8134
イイ	-10.8137
理学	-10.8138
▁water	-10.814
▁v	-10.8142
実態	-10.8147
▁four	-10.8148
さも	-10.8154
きれい	-10.8154
だけです	-10.8157
虐	-10.8161
いのではない	-10.8162
してもらえ	-10.8164
につけ	-10.8167
人工	-10.8168
ボク	-10.8175
文学	-10.8175
埋め	-10.818
こういうこと	-10.8184
ごく	-10.8184
いなく	-10.8185
たん	-10.8186
切り替え	-10.8187
▁day	-10.819
るかもしれません	-10.8193
おう	-10.8198
収集	-10.82
味わ	-10.8203
、“	-10.8204
がわか	-10.8205
▁year	-10.8211
直し	-10.8211
向き合	-10.8215
行な	-10.8221
似合	-10.8222
中学校	-10.8222
瀬	-10.8224
盾	-10.8225
less	-10.8226
凄く	-10.8232
慌て	-10.8232
一枚	-10.8235
いのが	-10.8238
詳し	-10.8241
輸入	-10.8241
設備	-10.8244
▁low	-10.8247
丘	-10.8249
なんですけど	-10.8264
チーズ	-10.8269
そこは	-10.8271
▁key	-10.8273
お待ち	-10.8273
いいですね	-10.8276
ドラ	-10.8277
促進	-10.8278
ものではない	-10.828
財産	-10.8281
あふれ	-10.8281
としたら	-10.8281
ていたら	-10.8281
▁still	-10.8282
ce	-10.8284
公務	-10.8288
っていたの	-10.8288
an	-10.8289
モン	-10.8289
相続	-10.8294
文書	-10.8297
だよね	-10.8299
っているのか	-10.8299
そうそう	-10.83
投手	-10.8304
ホ	-10.8307
(*	-10.8307
ism	-10.8308
スタジオ	-10.8312
見積も	-10.8319
つかない	-10.832
---	-10.8322
牧	-10.8322
そこそこ	-10.8324
脈	-10.8325
あんた	-10.8325
▁→	-10.8334
ゲット	-10.8335
新しく	-10.8335
▁Re	-10.8337
布団	-10.8341
ll	-10.8344
▁follow	-10.8346
頻	-10.8346
下手	-10.8347
食い	-10.8349
の神	-10.8351
トーク	-10.8354
尋ね	-10.8361
新潟	-10.8366
性能	-10.8374
するのも	-10.8378
してあげ	-10.8383
どうする	-10.8384
up	-10.8384
▁period	-10.8393
福島	-10.8393
ラスト	-10.8406
はもっと	-10.8406
滝	-10.8409
ことになった	-10.8411
革命	-10.8412
ることなく	-10.8414
どうか	-10.8417
作れ	-10.8419
ていれば	-10.8419
はしない	-10.842
▁age	-10.842
プール	-10.8421
高度	-10.8421
▁Let	-10.8424
賢	-10.8437
唐	-10.8441
るには	-10.8443
掛か	-10.8444
ソン	-10.8444
をすること	-10.8444
根本	-10.8449
output	-10.8462
なさ	-10.8464
紅葉	-10.8468
ヨガ	-10.847
年末	-10.8471
たような	-10.8472
ってしまい	-10.8472
旬	-10.8475
▁points	-10.848
▁take	-10.848
柔らか	-10.8483
加わ	-10.8485
▁activity	-10.8489
醤油	-10.8489
品質	-10.8492
▁★	-10.8492
田中	-10.8492
衣装	-10.8499
虚	-10.8502
%)	-10.8502
ヒ	-10.8504
▁issue	-10.8505
▁On	-10.8506
メイク	-10.8509
▁until	-10.8514
になったり	-10.8518
いでい	-10.8521
all	-10.8521
ているのは	-10.8525
通販	-10.8526
奏	-10.853
季	-10.8538
疾患	-10.8538
欄	-10.8541
だったから	-10.8544
渋谷	-10.8547
仕掛け	-10.8549
真ん	-10.8552
心臓	-10.8557
end	-10.856
▁open	-10.856
カン	-10.8566
バッグ	-10.8568
酔	-10.857
カウンター	-10.8572
なんですね	-10.8573
するだけ	-10.8576
アプローチ	-10.8584
コピー	-10.8587
錯	-10.8591
の木	-10.8593
三人	-10.8597
旗	-10.8601
集まり	-10.8604
容易	-10.8608
束	-10.8609
▁h	-10.8611
ことだ	-10.8618
だったのです	-10.8618
紀	-10.8622
もらった	-10.8622
塔	-10.8622
▁focus	-10.8631
論文	-10.8632
流し	-10.8632
かったと	-10.8634
グリーン	-10.8636
試み	-10.8638
キス	-10.8646
短期	-10.8649
内閣	-10.865
ive	-10.8652
があったので	-10.8663
まい	-10.8666
min	-10.8667
疫	-10.8673
呪	-10.8674
美人	-10.8674
兼	-10.8674
あちこち	-10.8676
▁An	-10.8679
があるのか	-10.8681
▁誰	-10.8686
揺れ	-10.8687
飛び	-10.869
美術	-10.8692
レイ	-10.8694
奈良	-10.8697
いてい	-10.8697
怪し	-10.8701
貫	-10.8704
ちゃった	-10.8713
引き出	-10.8714
欺	-10.8715
副業	-10.8716
学会	-10.8719
でしょうが	-10.872
弊	-10.8725
美味	-10.8725
dict	-10.8729
No	-10.8734
len	-10.8735
恵まれ	-10.8737
〇	-10.8737
告げ	-10.8739
丼	-10.8744
not	-10.8747
ちゃ	-10.8748
目立	-10.8752
んですか	-10.8754
閉じ	-10.8757
浅	-10.8761
棄	-10.8764
うまくい	-10.8764
AI	-10.8767
▁target	-10.8771
とこ	-10.8775
全力	-10.8775
df	-10.8778
剰	-10.8782
長野	-10.8785
オン	-10.8785
裕	-10.8786
iPhone	-10.8786
機器	-10.8789
▁available	-10.8798
おじさん	-10.88
廃止	-10.8802
ばっかり	-10.8802
地上	-10.8808
爽	-10.8808
苦笑	-10.8813
生地	-10.8817
おまけ	-10.8818
緯	-10.8821
机	-10.8825
お手	-10.8826
馴染	-10.8826
▁start	-10.8829
サービス	-10.883
てくれて	-10.8837
スペイン	-10.8843
▁changes	-10.8846
▁times	-10.8848
▁Here	-10.885
もいます	-10.8856
なんだよ	-10.8861
ワキガ	-10.8867
漢	-10.8869
ふたり	-10.8869
佐藤	-10.8874
だったのか	-10.8875
▁experience	-10.8876
環	-10.8877
▁above	-10.8878
なんとも	-10.888
すなわち	-10.8881
ているのです	-10.8882
shape	-10.8882
酵素	-10.8892
つらい	-10.8895
▁later	-10.8895
▁All	-10.8896
ましたよ	-10.89
っておく	-10.8906
喋	-10.8911
▁standard	-10.8912
堅	-10.8913
ってみ	-10.8913
▁g	-10.8926
マスコミ	-10.8928
してもら	-10.8929
踏まえ	-10.893
いてきた	-10.8931
犠	-10.8932
ライフ	-10.8933
亜	-10.8937
にあ	-10.8938
いざ	-10.894
log	-10.8944
してました	-10.8944
るんだ	-10.8945
かないと	-10.8945
――	-10.895
売上	-10.895
▁interest	-10.8952
ならでは	-10.8953
濡れ	-10.8955
▁together	-10.8957
手数	-10.896
堪	-10.8963
喉	-10.8964
わけですが	-10.8966
▁measure	-10.8968
▁risk	-10.8977
バン	-10.8988
ハード	-10.8989
なことは	-10.8993
正しく	-10.8995
美味しく	-10.8998
▁mean	-10.9002
齢	-10.9002
てみ	-10.9006
金曜	-10.9007
激しく	-10.9013
▁ただし	-10.9015
▁related	-10.9015
室内	-10.902
駅前	-10.9024
甲	-10.9031
書け	-10.9035
ロー	-10.9039
▁DNA	-10.904
逸	-10.9042
スケジュール	-10.9042
デメリット	-10.9043
脅	-10.905
ヤツ	-10.9052
なかったら	-10.9055
受講	-10.9057
隔	-10.9059
ドン	-10.9059
ていった	-10.9059
宴	-10.9061
(?)	-10.9065
わけではありません	-10.9069
とくに	-10.9074
あい	-10.9074
にとっても	-10.9074
捜査	-10.9079
ギ	-10.908
惹	-10.9084
たく	-10.9086
ではなくて	-10.9088
教員	-10.9091
代理	-10.9099
れたら	-10.9102
▁approach	-10.9102
自衛隊	-10.9103
▁子供	-10.9105
▁technique	-10.9106
▁United	-10.9107
慶	-10.9108
餅	-10.9108
鈴木	-10.9111
供給	-10.9111
忠	-10.9114
▁__	-10.912
味わい	-10.9122
拾	-10.9125
取り戻	-10.9127
沼	-10.9132
羅	-10.9137
というところ	-10.9144
再度	-10.9146
までも	-10.9147
オーナー	-10.9152
合わ	-10.9153
商店	-10.9154
スムーズ	-10.9154
ゴルフ	-10.9158
サークル	-10.9162
▁addition	-10.9163
水準	-10.9164
牲	-10.9164
卓	-10.9166
見守	-10.917
いけません	-10.9172
恒	-10.9172
やたら	-10.9172
膜	-10.9174
まとめて	-10.9176
▁involv	-10.9178
手軽	-10.9179
でもあります	-10.9186
ていましたが	-10.9188
くなってきた	-10.919
空き	-10.9191
▁length	-10.9195
やっぱ	-10.9195
ペン	-10.92
やす	-10.9205
だろうが	-10.9211
▁local	-10.9223
マイ	-10.9224
サロン	-10.9226
みました	-10.9228
踊り	-10.9228
まわり	-10.9228
ワ	-10.923
新人	-10.9233
▁Key	-10.9234
気づき	-10.9235
▁space	-10.9237
あぁ	-10.9237
取り出	-10.9238
徹	-10.9242
長年	-10.9243
イヤ	-10.9246
克	-10.9248
たときに	-10.925
ほう	-10.9257
イラスト	-10.9257
シャ	-10.9258
通勤	-10.9261
性的	-10.9263
across	-10.9263
あるけど	-10.9264
返す	-10.9266
晶	-10.9266
SNS	-10.9268
用品	-10.9273
講義	-10.9274
▁left	-10.9277
ニューヨーク	-10.9278
兵器	-10.9281
たように	-10.9283
てき	-10.9284
▁New	-10.9284
温か	-10.9285
▁なぜ	-10.9285
聞かせ	-10.9286
ファ	-10.9291
▁support	-10.9294
市長	-10.9299
乗り越え	-10.9303
うのが	-10.9305
埼玉	-10.9306
詐	-10.9306
テキスト	-10.9306
▁なお	-10.9306
頻繁	-10.9308
》	-10.9314
近代	-10.9316
チョコ	-10.9317
弘	-10.932
凍	-10.9329
殺し	-10.933
会計	-10.9331
いける	-10.9332
通知	-10.9336
ていくの	-10.9338
わき	-10.934
募	-10.9341
みたいで	-10.9342
壮	-10.9342
明るく	-10.9348
▁At	-10.9351
雇	-10.9351
塗装	-10.9352
Error	-10.9355
▁conditions	-10.9356
!?」	-10.9357
消化	-10.9358
os	-10.9359
▁effective	-10.9359
▁○	-10.9359
方式	-10.937
妥	-10.9374
だけだ	-10.9378
▁place	-10.9381
濃い	-10.9381
在宅	-10.9389
個別	-10.9389
うれしい	-10.9391
地獄	-10.9394
もらって	-10.9396
カップル	-10.9398
にしている	-10.9403
素人	-10.9416
▁species	-10.9424
センス	-10.9429
イエス	-10.9432
しまった	-10.9437
正面	-10.9437
っているのは	-10.944
砲	-10.9441
▁systems	-10.9442
尚	-10.9443
▁image	-10.9443
ヨ	-10.9448
もとに	-10.9449
っていても	-10.9451
ないのが	-10.9458
てみたい	-10.946
聴き	-10.9462
▁own	-10.9467
興味深	-10.9467
揃え	-10.9467
たのです	-10.947
プロセス	-10.947
いなぁ	-10.9471
頭痛	-10.9476
回し	-10.9478
肉体	-10.9479
たしかに	-10.9482
外出	-10.9483
ではないかと	-10.9483
▁observed	-10.9487
手前	-10.949
モテ	-10.9492
ジョン	-10.9496
せな	-10.9496
ほんとに	-10.95
直ぐ	-10.9501
▁equal	-10.9503
▁term	-10.9506
司法	-10.9514
あげる	-10.9515
雷	-10.9519
千葉	-10.952
いつまでも	-10.9521
歯科	-10.9521
▁len	-10.9523
いき	-10.9524
どんなに	-10.9527
▁pre	-10.9532
渡し	-10.9535
キャッシング	-10.9538
レンズ	-10.9541
チャート	-10.9546
うことで	-10.9546
就任	-10.9548
めっちゃ	-10.955
それだけで	-10.9553
軒	-10.9554
のおかげで	-10.9555
▁models	-10.9558
飛行	-10.956
▁No	-10.9568
おいて	-10.9576
拳	-10.9581
心がけ	-10.9591
るよ	-10.9591
カッコ	-10.9593
タバコ	-10.9601
タイヤ	-10.9604
舗	-10.9604
飲食	-10.9606
の頭	-10.9608
難しく	-10.961
生理	-10.9611
そちら	-10.9611
していたら	-10.9612
指揮	-10.9613
だれ	-10.9618
▁version	-10.9619
保健	-10.9623
スクール	-10.9624
▁After	-10.9628
りながら	-10.9635
ities	-10.9636
浦	-10.9638
をしながら	-10.9642
でいい	-10.9645
各種	-10.9645
▁finding	-10.9647
《	-10.9649
復興	-10.9659
▁field	-10.9661
何処	-10.9665
選べ	-10.9669
自殺	-10.9671
隆	-10.9676
▁$$	-10.968
わかって	-10.9682
est	-10.9689
荒れ	-10.9689
してみて	-10.969
研	-10.9692
開業	-10.9694
がいない	-10.9702
していただ	-10.9707
いただける	-10.9711
主体	-10.9711
アレルギー	-10.9713
コーチ	-10.9716
登り	-10.9718
▁means	-10.972
山口	-10.9728
right	-10.9735
鬱	-10.9739
だったけど	-10.974
ずいぶん	-10.9745
塚	-10.9746
博物館	-10.975
申告	-10.9752
オイル	-10.9754
ノー	-10.9755
▁fraction	-10.9756
▁initial	-10.9758
▁distribution	-10.9759
互い	-10.976
塗り	-10.9764
▁remain	-10.9767
▁What	-10.9769
間に合	-10.9775
浮	-10.9776
アンケート	-10.9777
勿	-10.9778
▁lower	-10.9778
海岸	-10.9779
るつもり	-10.9782
コロナ	-10.9782
([	-10.9793
ぴったり	-10.9797
▁sub	-10.9804
づらい	-10.9807
有利	-10.9812
桃	-10.9816
!』	-10.9817
らせて	-10.9819
古代	-10.982
命令	-10.9825
▁夏	-10.9828
もん	-10.9829
漂	-10.9829
わが	-10.9831
▁last	-10.9832
通し	-10.9834
てしまうと	-10.9837
がつく	-10.984
古く	-10.9845
マル	-10.9847
いことを	-10.985
ぼ	-10.9852
トランプ	-10.9855
決まっ	-10.9858
るなんて	-10.9859
スーツ	-10.9861
サラダ	-10.9867
景気	-10.987
うことは	-10.9871
ジャ	-10.9874
ってもら	-10.9878
欧州	-10.9878
自慢	-10.9883
init	-10.9885
国立	-10.9886
▁look	-10.9891
不正	-10.9895
あいつ	-10.9897
Web	-10.9898
一郎	-10.9899
にしろ	-10.9902
もたくさん	-10.9903
いくつ	-10.9908
倉	-10.9916
かかった	-10.9919
▁それに	-10.9925
over	-10.9926
マナー	-10.9928
ったのだ	-10.9933
さら	-10.9933
究	-10.9934
はないと	-10.9935
▁cases	-10.9938
いてみ	-10.9941
閣	-10.9945
捕	-10.9948
▁best	-10.9951
▁better	-10.9959
llm	-10.9962
仙台	-10.9962
署名	-10.9962
みたいだ	-10.9965
頬	-10.9968
グローバル	-10.9975
▁clear	-10.9976
▁original	-10.9981
餌	-10.9983
本部	-10.9984
▁input	-10.9985
ダウンロード	-10.9986
っていった	-10.999
となってい	-10.9993
裸	-10.9997
つけた	-10.9998
隅	-11.0001
均	-11.0001
けん	-11.0004
める	-11.0008
抵	-11.0008
亀	-11.0009
天井	-11.0009
にしました	-11.0009
テンション	-11.001
あん	-11.0013
るかもしれない	-11.0013
なかったり	-11.0016
ないことを	-11.0023
深め	-11.0024
▁position	-11.0028
チャ	-11.0029
いったい	-11.003
存じ	-11.0033
んでしょうね	-11.0036
▁彼女	-11.0038
あるのか	-11.0043
こない	-11.0046
峰	-11.0047
遂	-11.0049
郵便	-11.0051
漬け	-11.0051
どうした	-11.0052
準	-11.0052
Figure	-11.0059
木の	-11.006
イライラ	-11.006
割り	-11.0061
なさそう	-11.0061
持て	-11.0064
トマト	-11.0064
コンセプト	-11.0064
▁`	-11.0066
はこんな	-11.0066
顕	-11.0067
がなかった	-11.0067
アレンジ	-11.0068
▁energy	-11.0068
話しかけ	-11.0069
になったの	-11.0071
▁relative	-11.0071
喧嘩	-11.0073
▁region	-11.0079
できるよう	-11.0087
レンタル	-11.0088
分かれ	-11.009
蛇	-11.0092
ボディ	-11.0097
部隊	-11.0098
▁complete	-11.0101
唇	-11.0105
▁least	-11.0106
▁few	-11.0107
そうか	-11.0112
カロリー	-11.0114
外れ	-11.0116
測定	-11.0118
容疑	-11.0121
ものすごく	-11.0122
だめ	-11.0125
▁solution	-11.0125
震	-11.0126
▁acid	-11.0126
出会え	-11.0128
小屋	-11.0129
left	-11.0131
きて	-11.0134
▁negative	-11.0142
くれた	-11.0144
for	-11.0145
んだと	-11.0148
いお	-11.0149
不幸	-11.0151
なのかな	-11.0154
っていい	-11.0155
▁reported	-11.0155
リード	-11.0155
▁output	-11.0156
ボス	-11.0158
疑い	-11.0158
ドライブ	-11.0159
こんばんは	-11.0162
柳	-11.0163
啓	-11.0167
正常	-11.0171
給与	-11.0173
騒ぎ	-11.0176
アウト	-11.0176
藩	-11.018
▁problems	-11.0184
満ち	-11.0184
開設	-11.0188
んだら	-11.019
もうすぐ	-11.0192
ったのが	-11.0193
かっこいい	-11.0193
マス	-11.0194
工業	-11.0195
つつも	-11.0198
▁body	-11.0199
幻	-11.02
ポイント	-11.0208
鍛え	-11.0212
分類	-11.0212
▁family	-11.0214
スト	-11.0214
低く	-11.0215
神奈川	-11.0218
河	-11.0222
嵐	-11.0222
コミュニティ	-11.0224
になってしまいます	-11.0224
▁growth	-11.0224
▁add	-11.0226
株式	-11.0227
飾り	-11.0238
本体	-11.0241
ございません	-11.0246
じゃなく	-11.0247
涯	-11.0247
首都	-11.0251
してくださ	-11.0253
▁allow	-11.0269
慢	-11.0277
んだよね	-11.028
によ	-11.0286
りやすい	-11.0294
▁東京	-11.0297
美しく	-11.03
dir	-11.0305
たほうが	-11.0311
役員	-11.0312
なぁと	-11.0314
ないことが	-11.0318
れず	-11.0321
ウイルス	-11.0328
いよう	-11.0329
物理	-11.0333
>>	-11.0339
あまりに	-11.0344
サウンド	-11.0344
絡	-11.0351
添え	-11.0355
強力	-11.0356
なると	-11.0359
っちゃう	-11.036
せめて	-11.0364
もち	-11.0366
サプリメント	-11.0369
▁required	-11.037
▁But	-11.0373
覗	-11.0385
▁functions	-11.039
おお	-11.0391
こも	-11.0395
カナダ	-11.0399
浪	-11.0402
ていても	-11.0406
味方	-11.0413
てくるの	-11.0413
信号	-11.0419
▁base	-11.0421
セン	-11.0422
勧	-11.0427
ドキドキ	-11.0428
ジャンプ	-11.0431
っているのです	-11.0438
・・・・・	-11.044
▁culture	-11.044
ワクワク	-11.0443
局長	-11.0445
かったのです	-11.0447
一種	-11.0451
気がつ	-11.0453
co	-11.0454
洗い	-11.0456
しね	-11.0456
▁昨年	-11.0458
進学	-11.0458
expr	-11.046
冠	-11.0462
遺産	-11.0462
もったいない	-11.0463
香港	-11.0471
いますし	-11.0472
なって	-11.0475
せん	-11.0479
アルコール	-11.048
消し	-11.0487
半島	-11.0488
朗	-11.049
引き起こ	-11.0491
仏教	-11.0493
気が付	-11.0495
もしかして	-11.05
▁lines	-11.0503
どうせ	-11.0504
飛ば	-11.0506
ジム	-11.0507
芝	-11.0508
はできない	-11.0508
コート	-11.0509
本屋	-11.0511
股	-11.0513
ってみよう	-11.0514
さや	-11.0514
飛び出	-11.0517
ステップ	-11.052
気づか	-11.0525
審議	-11.0526
人事	-11.0526
ピ	-11.0527
燃料	-11.0529
▁him	-11.0533
王子	-11.0533
得点	-11.0533
統計	-11.0534
搭載	-11.0536
ww	-11.0536
オー	-11.0536
踏	-11.0541
割れ	-11.0541
ベトナム	-11.0543
いましたが	-11.0544
なってくる	-11.0547
▁>>	-11.0555
▁making	-11.0559
▁elements	-11.0559
だったか	-11.0561
ローマ	-11.0561
臓	-11.0562
おすすめです	-11.0562
パーツ	-11.0564
ウチ	-11.0569
幹	-11.0569
引っ張	-11.0571
ことになり	-11.0572
共産党	-11.0574
わか	-11.0581
▁compar	-11.0582
要する	-11.0582
受け止め	-11.0586
廊	-11.0587
みると	-11.0589
てあげ	-11.059
}\	-11.0591
マシン	-11.0592
やん	-11.0594
冷蔵	-11.0594
▁Y	-11.0596
書店	-11.0598
▁establish	-11.0601
エン	-11.0602
知恵	-11.0603
▁sample	-11.061
月曜	-11.0611
確かめ	-11.0613
チャン	-11.0614
ってみると	-11.0614
雪が	-11.0617
日付	-11.0618
まる	-11.0623
駆け	-11.0623
♡	-11.0624
がいっぱい	-11.0624
いじめ	-11.0625
お礼	-11.0626
くれ	-11.0626
になるのは	-11.0633
ボックス	-11.0633
methods	-11.0635
吾	-11.0636
んでしょうか	-11.0636
ジュ	-11.0636
連中	-11.0641
いいと	-11.0642
幸福	-11.0642
ar	-11.0643
▁next	-11.0651
ないんです	-11.0655
オーストラリア	-11.066
あげて	-11.066
テクニック	-11.0663
シナリオ	-11.0668
▁text	-11.0669
贅	-11.0671
─	-11.0671
羊	-11.0672
よって	-11.0682
乃	-11.0684
@	-11.0686
漢字	-11.0688
▁recent	-11.0691
てもいい	-11.0692
移籍	-11.0698
▁certain	-11.0704
てもらいたい	-11.0706
▁個人	-11.0706
PS	-11.0708
邪	-11.0712
ドレス	-11.0714
II	-11.0715
暦	-11.0715
いてくる	-11.0715
よろしく	-11.0716
るくらい	-11.0717
▁normal	-11.0721
豆腐	-11.0723
傘	-11.0724
ニーズ	-11.0724
ary	-11.0725
num	-11.0726
学年	-11.0729
貞	-11.0729
訴	-11.073
仕上が	-11.0733
net	-11.0737
己	-11.0737
いなと	-11.0744
terms	-11.0746
描写	-11.0756
長男	-11.0756
袖	-11.0758
▁</	-11.076
レコード	-11.0762
循環	-11.0763
▁ID	-11.0765
姉さん	-11.0768
▁major	-11.0771
めちゃくちゃ	-11.0772
警戒	-11.0774
フィールド	-11.0778
いよ	-11.078
胆	-11.0781
▁context	-11.0787
▁side	-11.0789
連合	-11.079
討	-11.0796
夢中	-11.0798
鎖	-11.0798
アイス	-11.0799
シャワー	-11.0802
▁maintain	-11.0802
先端	-11.0812
ランド	-11.082
社内	-11.082
したくない	-11.0821
でなければ	-11.0822
創業	-11.0822
中古	-11.0823
ラー	-11.0823
ていただけ	-11.0826
if	-11.0828
オフィス	-11.0828
追いかけ	-11.0829
真似	-11.083
ける	-11.0831
きれいに	-11.0833
▁product	-11.0834
ならぬ	-11.0838
ごみ	-11.084
忙しく	-11.084
あら	-11.0842
につき	-11.0842
いつの間に	-11.0849
ないということ	-11.086
age	-11.0861
upon	-11.0866
アフリカ	-11.0866
されてる	-11.0868
科目	-11.087
おもしろい	-11.0877
いけ	-11.0877
服装	-11.0881
じめ	-11.0888
教科書	-11.089
バトル	-11.0892
キッチン	-11.0892
析	-11.0892
ありませんが	-11.0893
大分	-11.0899
峠	-11.0899
ネコ	-11.09
かき	-11.0901
っちゃ	-11.0903
PR	-11.0904
▁strong	-11.0905
持続	-11.0905
なしで	-11.0908
長崎	-11.0909
形態	-11.091
大震災	-11.0912
らぬ	-11.0913
ドライバー	-11.0918
テン	-11.0924
孝	-11.0924
祖	-11.0925
初日	-11.093
ian	-11.0938
炊	-11.0946
るかも	-11.0952
機構	-11.0953
絞	-11.0958
sum	-11.0958
いいよ	-11.0959
▁random	-11.0959
いますので	-11.0961
▁evidence	-11.0964
日頃	-11.0966
缶	-11.0969
文庫	-11.0974
▁毎	-11.0975
頼り	-11.0977
貿易	-11.0979
らせる	-11.0982
幣	-11.0982
▁With	-11.0985
▁[]	-11.099
▁Since	-11.0994
規則	-11.1005
吉田	-11.1006
▁program	-11.1011
クルマ	-11.1012
▁involve	-11.1014
ということも	-11.1018
功	-11.1018
祖父	-11.102
▁それで	-11.102
きたら	-11.1022
寛	-11.1023
ヒント	-11.1025
れること	-11.1027
堀	-11.1028
起こし	-11.1028
▁types	-11.103
うちは	-11.1031
につきまして	-11.1032
鉢	-11.1032
逝	-11.1033
収納	-11.1036
キーワード	-11.1036
招待	-11.1041
槽	-11.1045
ているという	-11.1045
かり	-11.1047
てしまうの	-11.105
灰	-11.1053
震災	-11.1058
たことは	-11.1058
るぞ	-11.1058
▁essential	-11.1062
format	-11.1064
芋	-11.1065
やれ	-11.1066
かん	-11.1067
オーバー	-11.107
ヒト	-11.1074
突破	-11.1074
おれ	-11.1077
展望	-11.1077
てくださ	-11.1078
▁short	-11.1079
インストール	-11.1081
あそこ	-11.1083
▁others	-11.1083
溜ま	-11.1084
▁×	-11.1084
砂糖	-11.1085
接触	-11.1085
▁according	-11.1086
マシ	-11.109
の森	-11.1094
ですからね	-11.1094
ってこ	-11.1096
シェア	-11.1096
▁exist	-11.1096
預け	-11.1098
イケメン	-11.1101
▁history	-11.1102
押さえ	-11.1105
住ま	-11.1107
のせいで	-11.1108
不快	-11.1108
二次	-11.1112
▁don	-11.1115
茂	-11.113
るようになっ	-11.113
(^^)	-11.1131
落ち込	-11.1131
▁light	-11.1133
▁ensure	-11.1138
自立	-11.1138
輸出	-11.1139
ではないので	-11.1141
んだから	-11.1142
▁areas	-11.1144
繋がり	-11.1146
成り立	-11.1149
稽	-11.1159
プライベート	-11.1159
っぽ	-11.1159
阪神	-11.1159
▁States	-11.1161
defined	-11.1162
▁co	-11.1163
できるか	-11.1165
ゲ	-11.117
NG	-11.1174
▁player	-11.1176
律	-11.1176
ist	-11.1176
畳	-11.1177
チョコレート	-11.1179
引く	-11.1182
朝日	-11.1183
あらか	-11.1185
修行	-11.1186
だか	-11.1186
ment	-11.1187
▁int	-11.1188
きれいな	-11.1195
中途	-11.1196
てはならない	-11.1197
愛知	-11.1201
しばしば	-11.1203
▁True	-11.1208
いないと	-11.1212
ばら	-11.1212
▁appear	-11.1213
なあと	-11.1213
承認	-11.1215
有難	-11.1218
燃え	-11.1218
パンツ	-11.1219
分割	-11.1219
問い合わせ	-11.1221
おまえ	-11.1226
眠れ	-11.1227
▁interaction	-11.1228
ことはありません	-11.1228
なしに	-11.1228
麗	-11.1228
承知	-11.1233
イカ	-11.1233
そうなので	-11.1235
なった	-11.1238
イチ	-11.124
かわからない	-11.1241
de	-11.1243
例え	-11.1245
\_	-11.1246
てしまうこと	-11.1249
虎	-11.125
交わ	-11.1252
裁判所	-11.1256
ダブル	-11.1258
ワールド	-11.126
すように	-11.126
浮かべ	-11.1261
伊	-11.1262
講習	-11.1268
放射	-11.1268
▁μ	-11.127
収め	-11.127
伸	-11.1272
▁care	-11.1276
train	-11.1276
ほら	-11.1276
数え	-11.1278
ライダー	-11.1281
オプション	-11.1282
騙	-11.1282
ってみて	-11.1284
▁os	-11.1292
発電	-11.1293
▁century	-11.1296
になってしまいました	-11.1301
▁paper	-11.1304
ってのは	-11.1305
▁...	-11.1305
休暇	-11.1308
ダム	-11.1309
山田	-11.131
▁instead	-11.1316
▁tissue	-11.1318
やお	-11.1318
ペ	-11.1322
学科	-11.1326
ココ	-11.1326
取り扱	-11.1327
蕎麦	-11.133
加速	-11.1331
携わ	-11.1333
▁social	-11.1333
金属	-11.1337
ロード	-11.134
目覚め	-11.1342
商売	-11.1348
マッチ	-11.1349
ているような	-11.1352
高橋	-11.1354
自主	-11.1359
日前	-11.1362
かどうかは	-11.1362
そうして	-11.1363
ほうがいい	-11.1364
▁average	-11.1366
▁While	-11.1366
憂	-11.1372
巨人	-11.1373
梅雨	-11.1378
どうなる	-11.1378
惜し	-11.1382
なりに	-11.1383
▁あれ	-11.1386
ッと	-11.1387
部下	-11.1391
ことはない	-11.1397
ギリギリ	-11.1399
申込	-11.1403
すべ	-11.1407
っておき	-11.1409
きょう	-11.1412
▁surface	-11.1415
▁produce	-11.1416
▁good	-11.1418
▁object	-11.1421
買わ	-11.1421
▁city	-11.1421
▁unique	-11.1424
憲	-11.1425
たれ	-11.1432
蒸	-11.1432
岡山	-11.1435
掴	-11.1436
^^;	-11.1437
定着	-11.1437
▁わたし	-11.1441
クロス	-11.1441
トンネル	-11.1442
しているよう	-11.1447
ユ	-11.1449
微笑	-11.1465
なるのか	-11.1465
リラックス	-11.1465
震え	-11.1466
なことに	-11.1467
もうちょっと	-11.1468
てくださいね	-11.1469
ロンドン	-11.1472
おしゃれ	-11.1472
予選	-11.1474
ミルク	-11.1476
ふうに	-11.1477
ター	-11.1478
シミ	-11.1484
疎	-11.1485
一旦	-11.1489
per	-11.1489
▁close	-11.1491
冷凍	-11.1493
努め	-11.1496
辿	-11.1497
てました	-11.1497
腺	-11.1502
るわけです	-11.1502
あっさり	-11.1503
▁series	-11.1505
▁II	-11.1507
せい	-11.1513
～♪	-11.1513
フード	-11.1516
そりゃ	-11.1522
オレンジ	-11.1525
臣	-11.1525
便秘	-11.1535
裂	-11.1537
▁男	-11.1537
打つ	-11.154
セリフ	-11.1545
ーか	-11.1547
酢	-11.1549
駐	-11.1551
py	-11.1551
came	-11.1551
しなくて	-11.1551
タオル	-11.1552
ちゃって	-11.1554
・・。	-11.1554
判決	-11.1556
▁English	-11.1556
▁少し	-11.1557
寄付	-11.1559
宮崎	-11.156
騎士	-11.156
性質	-11.1562
ターン	-11.1565
那	-11.1565
▁plt	-11.1565
ユニット	-11.157
ジャパン	-11.1572
いえる	-11.1578
ニュー	-11.1581
ヵ	-11.1581
へん	-11.1582
▁+=	-11.1585
ピーク	-11.1585
とかいう	-11.1587
にくく	-11.159
正義	-11.1594
having	-11.1595
わかりません	-11.1596
嘆	-11.1597
plot	-11.1598
ってみる	-11.1602
rather	-11.1603
マーケティング	-11.1605
証券	-11.1607
飲め	-11.1609
ml	-11.1611
ありまして	-11.1611
["	-11.1612
鑑定	-11.1612
アナ	-11.1614
ジン	-11.1616
じゃなかった	-11.162
▁Constraint	-11.1622
佐	-11.1623
追い	-11.1624
...!	-11.1625
エラー	-11.1628
なかったの	-11.1629
つける	-11.163
銘柄	-11.1631
クール	-11.1634
俊	-11.1634
出来上が	-11.1637
だなぁ	-11.1645
いままで	-11.1646
拭	-11.1646
▁temperature	-11.1647
α	-11.1648
マー	-11.1649
クリ	-11.165
符	-11.1652
眠り	-11.1653
ことがない	-11.1654
儲け	-11.1654
one	-11.1656
ちょ	-11.1657
ロン	-11.1661
ものではありません	-11.1661
括	-11.1662
稲	-11.1662
鶴	-11.1667
▁いま	-11.1668
になってる	-11.1669
厚生	-11.1669
該	-11.167
そうだった	-11.1678
のですか	-11.168
着替え	-11.168
っぱなし	-11.1684
▁additional	-11.1684
UP	-11.1687
んでお	-11.1688
訪ね	-11.1691
重大	-11.1691
恐らく	-11.1691
思わせ	-11.1696
スッキリ	-11.17
はるか	-11.1701
富士	-11.1701
ハワイ	-11.171
なるもの	-11.1721
矛	-11.1723
▁海	-11.1724
中村	-11.1724
欠け	-11.1725
▁free	-11.1726
するよう	-11.1728
のことだ	-11.1729
いかが	-11.1729
るかどうか	-11.1731
エントリー	-11.1733
▁learning	-11.1734
▁determine	-11.1737
侵入	-11.1739
いですし	-11.1746
時刻	-11.1747
刃	-11.1752
アホ	-11.1754
どおり	-11.1754
スイッチ	-11.1755
西洋	-11.1755
▁account	-11.1755
呟	-11.1756
しま	-11.1757
はいけない	-11.1757
るんです	-11.1762
響き	-11.1762
戚	-11.1764
天使	-11.1764
サラリーマン	-11.1765
嬉しく	-11.1767
眉	-11.1767
お花	-11.1773
▁expected	-11.1776
▁site	-11.1776
役立	-11.178
渡り	-11.1781
制御	-11.1782
いんです	-11.1787
予備	-11.1789
忍	-11.179
大い	-11.1795
お祭り	-11.1795
セル	-11.1796
▁access	-11.1796
▁provided	-11.1798
増し	-11.1801
▁source	-11.1807
宜しく	-11.1807
ホワイト	-11.1809
▁full	-11.181
聞け	-11.1811
見舞	-11.1811
▁step	-11.1813
▁Some	-11.1815
していたので	-11.1816
ロス	-11.1817
パー	-11.1819
デス	-11.1821
始	-11.1822
▁play	-11.1824
造り	-11.1824
サブ	-11.1829
取り付け	-11.1833
▁question	-11.1834
いかない	-11.1837
args	-11.184
多々	-11.1847
寮	-11.1851
手元	-11.1853
松本	-11.1856
一見	-11.1857
湧	-11.1859
異性	-11.1859
ナイト	-11.1866
てはいけない	-11.1868
っぽく	-11.1868
なかったこと	-11.1872
モンスター	-11.1873
ポケット	-11.1873
手当	-11.1874
マラソン	-11.1875
湾	-11.1877
三つ	-11.1877
尽	-11.1878
トラ	-11.188
なのかもしれません	-11.188
翔	-11.1881
▁learn	-11.1881
誓	-11.1883
斉	-11.1883
邸	-11.1886
いかな	-11.1886
いらっしゃ	-11.1889
ルーム	-11.189
きず	-11.1892
▁identify	-11.1893
上回	-11.1896
でないと	-11.1898
▁中国	-11.19
▁anti	-11.1903
れても	-11.1904
てきている	-11.1905
子育	-11.1905
▁influence	-11.1905
めに	-11.191
何だか	-11.1913
荘	-11.1915
伏	-11.1921
クマ	-11.1922
山本	-11.1923
廃棄	-11.1924
ブラジル	-11.1925
たんだけど	-11.1929
挟	-11.1929
地位	-11.193
沖	-11.1931
いことは	-11.1934
ホッ	-11.1936
五輪	-11.1938
対立	-11.194
持ち込	-11.1943
らし	-11.1943
▁raise	-11.1946
臨床	-11.1951
取締役	-11.1952
ソウル	-11.1953
個々	-11.1954
沙	-11.1957
泥	-11.1957
▁初め	-11.196
過ごせ	-11.1962
凝	-11.1964
さっそく	-11.1967
▁run	-11.1972
フロント	-11.1976
▁understand	-11.1976
僅	-11.1978
てみて	-11.1983
▁challenge	-11.1987
ついつい	-11.1988
ティー	-11.199
▁error	-11.1994
んだろうな	-11.2004
かなかった	-11.2005
▁too	-11.2007
うよう	-11.2014
懐	-11.2016
なんですよね	-11.2019
▁algorithm	-11.2019
嬢	-11.202
ですかね	-11.2022
すばらしい	-11.2022
キャスト	-11.2023
なんだから	-11.2023
してもらい	-11.2025
NO	-11.2026
一面	-11.2028
縛	-11.2029
貼り	-11.2033
るものは	-11.2034
蓋	-11.2037
たことがある	-11.2038
▁assistant	-11.204
ne	-11.204
ジャズ	-11.2041
熊本	-11.2042
東日本	-11.2043
▁instance	-11.2045
▁steps	-11.2045
False	-11.2046
舐め	-11.2048
ポン	-11.2052
ゆき	-11.2052
__(	-11.2053
ますけど	-11.2054
すか	-11.2057
杉	-11.2062
]。	-11.2064
屋敷	-11.2066
有り	-11.2067
親切	-11.2068
ったりして	-11.2069
筒	-11.2072
泊ま	-11.2074
ゴム	-11.2075
▁str	-11.2076
暫	-11.2086
合併	-11.2089
体育	-11.2091
▁near	-11.2094
ストレート	-11.2095
上下	-11.2099
悠	-11.2101
▁そうい	-11.2102
してくれて	-11.2118
info	-11.2119
巣	-11.2123
喚	-11.2125
飲ま	-11.2125
貰え	-11.2128
みて	-11.2129
都会	-11.2129
にしたい	-11.213
レン	-11.2133
いるので	-11.2137
▁natural	-11.2139
ケン	-11.214
をやる	-11.214
世に	-11.2146
競	-11.2147
▁regard	-11.215
▁home	-11.2153
あたって	-11.2154
パッケージ	-11.2155
帽子	-11.2156
霧	-11.2157
▁min	-11.2158
らなければ	-11.2163
熊	-11.2164
さっぱり	-11.2168
チン	-11.217
っす	-11.217
image	-11.2174
}$	-11.2174
柔軟	-11.2174
分泌	-11.2176
するつもり	-11.2178
パーティ	-11.2179
▁post	-11.2181
elif	-11.2181
あるんです	-11.2182
コト	-11.2182
すぎた	-11.2183
ーい	-11.219
ゆったり	-11.219
バル	-11.2192
ようとし	-11.2195
涼し	-11.2196
▁World	-11.2198
ノリ	-11.2198
をやめ	-11.2199
電池	-11.2202
><	-11.2202
タレント	-11.2208
工作	-11.2211
class	-11.2213
てもらい	-11.2213
萌え	-11.2213
エンジニア	-11.2214
たいこと	-11.2221
寸	-11.2223
クロ	-11.2225
相互	-11.2225
っちゃった	-11.2226
▁always	-11.2227
だらけ	-11.2227
厄	-11.2228
フィリピン	-11.2228
▁read	-11.2228
幹部	-11.2229
▁↑	-11.2235
やめて	-11.2236
▁False	-11.2239
▁seem	-11.2242
SS	-11.2242
銀座	-11.2245
巧	-11.2245
ないですが	-11.2247
衛生	-11.225
剛	-11.2256
ったまま	-11.2259
瓶	-11.226
ターゲット	-11.2263
訴訟	-11.2263
とんでもない	-11.2265
痛く	-11.2265
覚め	-11.2266
鹿児島	-11.2266
かったり	-11.2267
プラ	-11.227
格差	-11.2276
酒屋	-11.2277
声優	-11.2282
織	-11.2286
さぁ	-11.2287
ってみたい	-11.2287
▁Thus	-11.2291
拍手	-11.2292
厳しく	-11.2298
ED	-11.2304
▁government	-11.2307
椎	-11.2309
ねば	-11.2311
恥	-11.2312
成人	-11.2322
▁weight	-11.2324
牛乳	-11.2325
ナンバー	-11.2327
▁something	-11.2328
▁loss	-11.2331
アー	-11.2338
大陸	-11.2342
固め	-11.2343
▁action	-11.2345
ているようです	-11.2358
鎌倉	-11.236
泳	-11.236
んでしょう	-11.2364
▁同	-11.2368
ポスト	-11.2369
悩ま	-11.2374
菊	-11.2378
day	-11.238
パーク	-11.2381
キング	-11.2386
国連	-11.2387
ることにしました	-11.2392
見上げ	-11.2393
▁array	-11.2395
デザイナー	-11.2397
もあるの	-11.2399
いいな	-11.2399
セッション	-11.2401
ヘ	-11.2401
てもらって	-11.2402
かく	-11.2405
ことはできません	-11.2409
だろうな	-11.2409
なじみ	-11.2424
咲き	-11.2426
ous	-11.2427
▁whole	-11.2429
引き上げ	-11.2432
癌	-11.2441
くても	-11.2441
歪	-11.2442
メジャー	-11.2442
ているのが	-11.2444
正規	-11.2446
ジュース	-11.2446
マップ	-11.245
ったという	-11.245
塊	-11.2459
してみたい	-11.2466
OS	-11.2466
うのか	-11.2468
インパクト	-11.2472
label	-11.2481
太平洋	-11.2481
るようになって	-11.2481
中間	-11.2482
proteins	-11.2486
呼びかけ	-11.2486
みたいなも	-11.2487
したりする	-11.2488
どうしよう	-11.2489
▁decision	-11.2495
くんの	-11.2499
オーダー	-11.2499
角度	-11.2501
▁cancer	-11.2504
がちな	-11.2506
音声	-11.2513
二重	-11.2517
▁five	-11.2517
▁school	-11.2517
いらない	-11.252
スキンケア	-11.2521
スタンド	-11.2522
務省	-11.2526
眼鏡	-11.2526
it	-11.2527
繋	-11.2529
っけ	-11.2532
ぃ	-11.2534
ハン	-11.2537
世帯	-11.2537
叩き	-11.2539
たほうがいい	-11.254
くなると	-11.254
下がり	-11.2542
ないですね	-11.2542
暖	-11.2543
分解	-11.2545
同盟	-11.2546
▁off	-11.2549
ポーズ	-11.2551
日米	-11.2555
コレクション	-11.2556
水道	-11.2558
あけ	-11.2564
堂々	-11.2564
すっきり	-11.2565
執行	-11.2567
がんばって	-11.2576
ボリューム	-11.2576
コラボ	-11.2576
径	-11.2576
un	-11.2577
アパート	-11.2577
くなったり	-11.2578
▁true	-11.2588
new	-11.2589
稀	-11.259
▁First	-11.259
▁performance	-11.2591
▁More	-11.2592
ガンダム	-11.2594
ワークショップ	-11.2596
ine	-11.2598
▁simple	-11.2598
▁week	-11.2599
▁working	-11.26
やろう	-11.2601
▁below	-11.2601
簿	-11.2602
▁am	-11.2603
入口	-11.2604
うことに	-11.2609
さんや	-11.261
ロング	-11.261
{\	-11.2615
なれる	-11.2615
店長	-11.2616
半身	-11.2617
邦	-11.2624
ant	-11.2626
▁アメリカ	-11.2628
誘い	-11.2628
▁concentration	-11.2633
国道	-11.2633
▁hand	-11.2633
じっと	-11.2634
につく	-11.2636
ついている	-11.2641
ないですし	-11.2644
グルメ	-11.2644
▁primary	-11.2646
血管	-11.2648
喫茶	-11.2652
ませんので	-11.2652
全面	-11.2656
細かく	-11.2657
input	-11.2658
梨	-11.2659
苗	-11.2662
まし	-11.2662
どうにか	-11.2664
▁index	-11.2666
次郎	-11.2669
兼ね	-11.267
振る	-11.2671
塞	-11.2673
ニー	-11.268
ボーナス	-11.2681
MC	-11.2682
state	-11.2682
▁df	-11.2685
キン	-11.2694
がいいと	-11.2694
があったの	-11.2696
コイン	-11.2696
ラッキー	-11.2697
▁check	-11.2698
▁Figure	-11.2699
included	-11.27
未満	-11.2702
▁days	-11.2704
○○	-11.2705
user	-11.2707
エアコン	-11.2707
=(	-11.2708
陳	-11.271
煽	-11.2711
IC	-11.2716
▁impact	-11.2717
訓	-11.2721
叫び	-11.2721
今更	-11.2723
▁occur	-11.2723
になっていました	-11.2724
ダー	-11.2724
融	-11.2725
▁distance	-11.2727
中継	-11.2729
っていうのは	-11.273
ization	-11.2732
大学院	-11.2732
くじ	-11.2732
先行	-11.2734
自社	-11.2736
玄	-11.274
▁production	-11.2741
なんですか	-11.2742
訂	-11.2748
芝居	-11.275
くださいね	-11.2764
コンピュータ	-11.2769
▁students	-11.2774
小型	-11.2775
だったんです	-11.2777
CO	-11.2786
▁future	-11.2786
りも	-11.2791
▁unit	-11.2791
隙間	-11.2792
▁identified	-11.2792
怠	-11.2792
めん	-11.2797
締め	-11.2798
になっていて	-11.2798
ハート	-11.28
こだわ	-11.2802
滴	-11.2805
やって来	-11.2806
体感	-11.2807
ノウハウ	-11.2809
ダン	-11.2811
ia	-11.2813
ブル	-11.2813
val	-11.2814
みに	-11.2817
膨	-11.2821
スペシャル	-11.2824
date	-11.2829
秋田	-11.2837
糞	-11.2839
てしまったの	-11.2843
ブレーキ	-11.2844
基盤	-11.2847
ate	-11.2847
はいつ	-11.2851
のところに	-11.2851
責め	-11.2852
ミリ	-11.2853
まつり	-11.2853
▁color	-11.2853
固ま	-11.2854
を通し	-11.2855
▁indicate	-11.2855
賠償	-11.2858
中小企業	-11.2858
溶け	-11.2862
▁review	-11.2864
銘	-11.2864
いかもしれません	-11.2864
▁except	-11.2865
矯	-11.2865
叶	-11.2868
:「	-11.2876
おこな	-11.2882
ヒロイン	-11.2884
ったような	-11.2886
せいで	-11.2894
じゃないと	-11.2895
▁我が	-11.2896
アドレス	-11.29
石川	-11.2903
▁women	-11.2906
やりとり	-11.2907
猿	-11.2909
じて	-11.291
金銭	-11.291
富士山	-11.2911
トリ	-11.2913
協定	-11.2913
んじゃないかと	-11.2915
地下鉄	-11.2917
斬	-11.2919
とはい	-11.292
冗談	-11.2921
▁address	-11.2925
ance	-11.2926
バイ	-11.2927
サンプル	-11.2927
ふり	-11.293
コマ	-11.293
わけではなく	-11.2936
▁そこ	-11.2939
商業	-11.2941
▁game	-11.2942
稼げ	-11.2943
話せ	-11.2947
しすぎ	-11.2947
トライ	-11.2954
巡り	-11.2955
クソ	-11.2958
うことを	-11.296
あれこれ	-11.2961
頷	-11.2964
マーケット	-11.297
育ち	-11.2972
表す	-11.2974
貸し	-11.2984
▁via	-11.2987
というようなこと	-11.2989
チェーン	-11.2992
乗り換え	-11.2994
イスラム	-11.2999
紋	-11.3
着用	-11.3001
革	-11.3006
__	-11.3007
ありえない	-11.3008
らないので	-11.3009
lthough	-11.301
防災	-11.301
査	-11.3013
はまず	-11.3018
短く	-11.3018
▁普段	-11.302
テープ	-11.3023
▁death	-11.3023
directly	-11.3025
持参	-11.3028
ペア	-11.3028
ったから	-11.3029
そっと	-11.3029
鈴	-11.303
たよ	-11.3031
見逃	-11.3036
▁linear	-11.3039
▁string	-11.304
▁section	-11.304
小沢	-11.3041
祖母	-11.3048
染め	-11.3051
▁continue	-11.3053
▁War	-11.3053
媒	-11.3055
レッド	-11.3055
派手	-11.3056
())	-11.3062
しようか	-11.3063
▁clinical	-11.3063
いませんか	-11.3066
キリスト教	-11.3068
山頂	-11.3068
▁separate	-11.3069
奉	-11.307
南部	-11.3072
sequences	-11.3074
ユーロ	-11.3075
小林	-11.3076
炒め	-11.3078
▁mechanism	-11.3079
弟子	-11.3085
本社	-11.3086
ナー	-11.3088
清水	-11.3089
くせに	-11.3092
暮れ	-11.31
▁lead	-11.31
コミック	-11.3103
values	-11.3107
レンジ	-11.3107
っぱ	-11.3112
(^	-11.3117
ローカル	-11.3117
飛ぶ	-11.3118
ブラ	-11.3121
▁regions	-11.3122
泡	-11.3124
▁amount	-11.3126
片手	-11.3126
録画	-11.313
輸送	-11.313
責	-11.3131
正体	-11.3131
運び	-11.3132
粘	-11.3134
籠	-11.3135
積み	-11.3136
つくり	-11.3138
ませんね	-11.3138
エッチ	-11.3141
とり	-11.3141
遠慮	-11.3144
based	-11.3144
わからん	-11.3148
伊藤	-11.3149
してしま	-11.3149
▁top	-11.3152
with	-11.3155
いとは	-11.3158
():	-11.3159
保守	-11.316
ボード	-11.316
▁patient	-11.3162
赤字	-11.3163
同期	-11.3165
▁features	-11.3166
いいのか	-11.3169
▁properties	-11.318
旋	-11.318
▁And	-11.3181
いですよ	-11.3187
〕	-11.3192
ハム	-11.3192
サクラ	-11.3193
報じ	-11.3195
param	-11.3199
ゆえに	-11.32
いうふうに	-11.32
from	-11.3205
▁plant	-11.3208
ただけ	-11.3208
ランク	-11.321
▁stage	-11.3212
あきらめ	-11.3213
land	-11.3215
葛	-11.3218
歩道	-11.3218
▁overall	-11.3225
ゼ	-11.3225
テニス	-11.3228
喪	-11.3229
▁patterns	-11.3231
鳴ら	-11.3232
スルー	-11.3232
狩り	-11.3233
さあ	-11.3236
貝	-11.3237
ポスター	-11.3243
繊維	-11.3244
折れ	-11.3248
ライバル	-11.325
独り	-11.3256
あげた	-11.3257
モチベーション	-11.3259
▁knowledge	-11.3262
▁she	-11.3265
噛	-11.3271
▁towards	-11.3273
背負	-11.3273
▁ま	-11.3273
▁members	-11.3275
ライ	-11.3277
▁necessar	-11.3278
グラス	-11.3278
当事	-11.3285
パネル	-11.3289
ようにして	-11.329
したけど	-11.3291
家具	-11.3301
▁samples	-11.3302
ドーム	-11.3302
▁☆	-11.3303
▁explore	-11.3303
洞	-11.3305
てみます	-11.3305
トレンド	-11.3311
ヌ	-11.3312
絆	-11.3313
シフト	-11.3315
▁person	-11.332
食料	-11.3323
競馬	-11.3324
それなり	-11.3325
ネタバレ	-11.3326
応用	-11.3327
見れ	-11.333
▁\\	-11.3331
▁j	-11.3335
・・・・・・	-11.3338
▁仕事	-11.3339
つくる	-11.3347
耕	-11.3349
厨	-11.3349
先進	-11.3352
になってきた	-11.3353
思いき	-11.3354
var	-11.3355
笑み	-11.3355
Google	-11.3356
さっさ	-11.3358
パスタ	-11.336
にすると	-11.3361
然と	-11.3363
▁search	-11.3364
▁concern	-11.3365
問い	-11.3365
▁どう	-11.3366
▁allows	-11.3368
しょう	-11.337
▁degree	-11.3372
▁independent	-11.3375
無くな	-11.3377
おはようございます	-11.3379
だわ	-11.3384
ときも	-11.3385
いかにも	-11.3387
くれる	-11.3388
蘇	-11.3391
枕	-11.3392
Name	-11.3397
きれない	-11.3398
えっ	-11.3398
セキュリティ	-11.3398
ライター	-11.3401
インフルエンザ	-11.3404
進歩	-11.3406
▁よく	-11.3407
双方	-11.3407
↓	-11.3408
•	-11.3409
がすごく	-11.341
さくら	-11.3413
チャンネル	-11.3415
どうでもいい	-11.3416
ラブ	-11.3418
キリスト	-11.3424
マニュアル	-11.3425
nd	-11.3425
兵庫	-11.3426
リオ	-11.3426
テント	-11.3427
斗	-11.3429
るらしい	-11.343
Windows	-11.3431
岐	-11.3434
たとしても	-11.3434
衝	-11.3437
バター	-11.344
サイ	-11.3443
費や	-11.3445
ているか	-11.345
オブ	-11.3456
絶え	-11.3457
ぅ	-11.3461
グラフ	-11.3463
もあるし	-11.3463
にしています	-11.3466
よかったです	-11.3469
体温	-11.3474
守備	-11.3475
メン	-11.3476
がわからない	-11.348
三十	-11.3484
バツイチ	-11.3484
倒し	-11.3486
積み重ね	-11.3488
綱	-11.3488
不調	-11.3489
麦	-11.3491
戸惑	-11.3491
hours	-11.3499
琴	-11.3503
盛り上げ	-11.3503
SF	-11.3504
ばれる	-11.3505
レア	-11.3507
入試	-11.3512
ようとした	-11.3518
リクエスト	-11.3518
よくわからない	-11.3519
はともかく	-11.352
ったことは	-11.352
届き	-11.352
▁questions	-11.352
ていただく	-11.3521
▁events	-11.3522
になってき	-11.3522
講	-11.3527
推奨	-11.353
ないけれど	-11.3531
サー	-11.3531
泣く	-11.3542
お嬢	-11.3545
えません	-11.3545
なかったけど	-11.3546
山形	-11.3546
志望	-11.3548
ねばなら	-11.355
▁go	-11.3552
いまいち	-11.3553
▁default	-11.3555
班	-11.3556
▁children	-11.356
どー	-11.3561
--	-11.3561
謀	-11.3565
打ち合わせ	-11.3568
わけでもない	-11.3568
慰	-11.357
タッチ	-11.3575
▁outcome	-11.3577
をやって	-11.3583
割引	-11.3586
東大	-11.3587
同級	-11.3587
怖く	-11.3589
スタ	-11.3596
んと	-11.3598
ヒーロー	-11.36
凶	-11.3601
いまだに	-11.3602
さんには	-11.3603
▁theory	-11.3606
そしたら	-11.3606
parameters	-11.3608
小学	-11.3609
とのことで	-11.361
▁thus	-11.3614
助か	-11.3618
かわり	-11.3625
ショート	-11.3625
▁computer	-11.3626
立ち寄	-11.3627
なくては	-11.3627
甘え	-11.3627
覇	-11.3629
▁global	-11.3631
催し	-11.3632
ジャケット	-11.3636
木村	-11.3636
予告	-11.3638
あて	-11.3638
フォーム	-11.3639
肺	-11.3642
▁cause	-11.3644
▁vector	-11.3647
栗	-11.3654
たことを	-11.3657
れなかった	-11.366
なんの	-11.3661
db	-11.3662
メガネ	-11.3666
干し	-11.3668
クラシック	-11.3669
IP	-11.3669
more	-11.3669
飛び込	-11.367
とどま	-11.3671
仙	-11.3672
もんね	-11.3675
▁think	-11.3675
にあたる	-11.3677
▁behavior	-11.3677
▁network	-11.3678
▁//	-11.3678
尽き	-11.3681
▁contain	-11.3681
▁able	-11.3682
わね	-11.3683
作り出	-11.3683
三年	-11.3685
EU	-11.3687
きつい	-11.3688
とうとう	-11.369
台詞	-11.3692
誘導	-11.3694
▁functional	-11.3698
ミサイル	-11.3698
start	-11.37
遮	-11.3704
一目	-11.3705
甘く	-11.3709
流通	-11.3716
上り	-11.3716
コロナウイルス	-11.3717
繊	-11.3722
茎	-11.3723
住み	-11.3723
ているから	-11.3725
ビー	-11.3728
いらっしゃい	-11.3731
サイクル	-11.3731
鈍	-11.3732
遣い	-11.3735
ないところ	-11.3735
最小	-11.3737
▁Our	-11.3739
炭	-11.3739
街道	-11.3741
▁answer	-11.3742
ちゃんに	-11.3744
▁modern	-11.3745
もらいたい	-11.3746
▁active	-11.3747
格闘	-11.3748
傷つけ	-11.3748
NPO	-11.3749
ビーチ	-11.3749
こり	-11.375
▁physical	-11.3752
無意	-11.3755
青森	-11.3756
繰り広げ	-11.3756
つと	-11.3756
通行	-11.3757
らしさ	-11.3757
ならなかった	-11.3759
～～～	-11.3759
とらえ	-11.3762
日経	-11.3762
▁respectively	-11.3762
かもしれないけど	-11.3766
ボケ	-11.3772
▁containing	-11.3773
はまだまだ	-11.3774
かえ	-11.3775
▁shape	-11.3775
しちゃう	-11.3776
ということになる	-11.3776
かったけど	-11.3776
▁increasing	-11.3777
▁application	-11.3785
たせ	-11.3787
ty	-11.3787
▁prevent	-11.3787
▁units	-11.3788
▁table	-11.379
やってみ	-11.3791
幻想	-11.3792
らなくて	-11.3793
ともかく	-11.3795
カラオケ	-11.3796
筈	-11.38
フィ	-11.3801
十二	-11.3803
仮面	-11.3803
日時	-11.3805
▁blood	-11.3806
大正	-11.3807
でもなく	-11.3808
っているか	-11.3809
いことに	-11.381
▁works	-11.381
コンビ	-11.3811
すればいい	-11.3813
コア	-11.382
なんでしょう	-11.3823
肯	-11.3827
国語	-11.3828
果て	-11.3829
ファミリー	-11.3829
るしかない	-11.3833
弓	-11.3833
吐き	-11.3843
託	-11.3846
タンパク	-11.3846
▁treat	-11.3847
蓮	-11.3847
終わらせ	-11.3848
いてお	-11.3855
ねん	-11.3857
▁content	-11.3859
▁l	-11.3861
温め	-11.3864
▁夜	-11.3866
?(	-11.3868
▁Z	-11.3871
▁結婚	-11.3875
ビッグ	-11.3875
したいです	-11.3875
みてください	-11.3875
蘭	-11.3876
▁scale	-11.3877
おもちゃ	-11.3878
タブレット	-11.3879
漢方	-11.3881
キャンセル	-11.3882
夢の	-11.3883
鹿	-11.3885
ちゃんも	-11.3886
たのに	-11.389
おいしく	-11.389
ってるの	-11.3896
},	-11.3897
教材	-11.3901
晒	-11.3903
コマンド	-11.3904
チェック	-11.3911
▁韓国	-11.3913
オタク	-11.3915
わせる	-11.3915
郊	-11.3915
消防	-11.3918
カル	-11.3921
▁rates	-11.3921
コメント	-11.3923
綿	-11.3924
財務	-11.3924
▁course	-11.3927
にかか	-11.3927
文明	-11.3932
ized	-11.3936
傑	-11.3936
▁consist	-11.3937
▁reaction	-11.394
加藤	-11.394
待機	-11.3942
者数	-11.3943
リゾート	-11.3944
いうと	-11.3948
▁larger	-11.3952
プレ	-11.3952
シティ	-11.3956
動け	-11.3958
妬	-11.3958
ておる	-11.3959
▁matrix	-11.3961
見極め	-11.3968
ポケモン	-11.3968
貌	-11.3968
see	-11.3969
print	-11.3976
ようとして	-11.3977
ってことで	-11.3977
くのか	-11.398
てしまっている	-11.398
DS	-11.3982
トヨタ	-11.3982
それなら	-11.3983
▁million	-11.3985
io	-11.3986
認証	-11.3987
賑わ	-11.3988
オール	-11.3988
メル	-11.3993
妖	-11.3997
▁constant	-11.3998
リビング	-11.4001
踏み	-11.4001
あんなに	-11.4004
▁Your	-11.4006
蹴	-11.4006
レモン	-11.4009
ノン	-11.401
なか	-11.4012
pi	-11.4014
▁domain	-11.4015
フレーム	-11.4018
歌い	-11.4021
エース	-11.4021
球団	-11.4028
北京	-11.4031
エステ	-11.4033
こなし	-11.4034
ヴィ	-11.4034
切手	-11.4038
かえって	-11.4038
!!	-11.404
動向	-11.4044
祐	-11.4045
</	-11.4051
思い切	-11.4054
らないように	-11.4055
ったのに	-11.4056
おばあちゃん	-11.4057
length	-11.4057
やりたいこと	-11.4062
撫で	-11.4063
▁parts	-11.4063
ユダヤ	-11.4069
かせる	-11.4069
なんていう	-11.407
▁path	-11.4075
▁reveal	-11.408
駒	-11.408
いけない	-11.4081
るのではない	-11.4081
改良	-11.4082
渡辺	-11.4086
シュート	-11.4087
ヴァ	-11.409
日本国	-11.4091
ページ	-11.4092
サーバー	-11.4092
拓	-11.4093
かぶ	-11.4095
そろ	-11.4095
動機	-11.4096
▁tumor	-11.4098
粗	-11.4099
ったか	-11.4101
富山	-11.4105
ってたら	-11.411
広報	-11.4111
審	-11.4113
よさ	-11.4114
▁assert	-11.4116
お天	-11.4117
ちに	-11.4118
ぽ	-11.412
みた	-11.412
科医	-11.4128
▁元	-11.4129
揚	-11.4138
ジェ	-11.4138
$$	-11.4139
薄く	-11.4142
溶	-11.4143
バブル	-11.4144
ってもいい	-11.4145
狼	-11.4146
▁decrease	-11.4151
盟	-11.4152
▁小	-11.4154
てしまうので	-11.4154
将軍	-11.4157
ほっと	-11.4163
サラ	-11.4164
ソ連	-11.4166
▁forms	-11.4166
...?	-11.4167
^{	-11.4168
org	-11.417
連邦	-11.417
まつ	-11.4177
やばい	-11.418
綾	-11.418
阿	-11.4184
乱れ	-11.4185
table	-11.4189
ログ	-11.4191
対話	-11.4196
son	-11.4197
大根	-11.4199
冷や	-11.4199
map	-11.42
プロデューサー	-11.4201
▁entire	-11.4201
ハル	-11.4201
マイク	-11.4206
朴	-11.4209
お陰	-11.4209
宮城	-11.421
居住	-11.421
item	-11.4212
森林	-11.4213
クライアント	-11.4216
ブック	-11.4219
佳	-11.4222
作り上げ	-11.4223
海の	-11.4225
▁«	-11.4226
大使	-11.4226
ベルト	-11.4229
ヤバ	-11.4229
なってきました	-11.4237
キーボード	-11.4248
赦	-11.4253
賀	-11.4254
ておけば	-11.4258
こども	-11.4259
名誉	-11.4259
ぜんぜん	-11.4262
餃	-11.4268
▁fact	-11.4268
平等	-11.4268
ゾーン	-11.427
でやって	-11.4271
謙	-11.4272
▁Guideline	-11.4273
▁zero	-11.4274
沙汰	-11.4275
!)	-11.4276
みなさま	-11.4277
なってしまいました	-11.4277
▁successful	-11.428
プロフィール	-11.428
▁depend	-11.4281
ドラム	-11.4281
んだな	-11.4287
もたら	-11.4292
裏切	-11.4293
おっさん	-11.4294
女王	-11.43
なくなってしまう	-11.4305
いちばん	-11.4305
▁element	-11.4305
▁why	-11.4306
継ぎ	-11.4307
▁database	-11.4308
バッテリー	-11.4308
mean	-11.4309
じわ	-11.4309
ダイ	-11.4311
伐	-11.4313
困り	-11.4313
いかも	-11.4318
ショット	-11.4319
▁author	-11.4321
フルーツ	-11.4323
大和	-11.4325
泰	-11.4327
div	-11.4329
コラム	-11.4331
やろうと	-11.4331
何で	-11.4331
クラ	-11.4331
SP	-11.4333
たって	-11.4335
^)	-11.4336
るんだろう	-11.4338
▁Python	-11.4341
●	-11.4342
一貫	-11.4342
憎	-11.4343
ごめん	-11.4345
始末	-11.4347
うる	-11.4347
▁project	-11.4349
やま	-11.4349
をやってい	-11.4349
▁environment	-11.4354
昌	-11.4361
わし	-11.4363
窮	-11.4365
ままに	-11.4366
ということに	-11.4366
▁一般	-11.4366
パーセント	-11.4372
ガー	-11.4372
XXXX	-11.4374
レート	-11.4375
FC	-11.4375
ブース	-11.4376
川崎	-11.4377
▁country	-11.4378
形状	-11.4378
っていうか	-11.4379
▁consistent	-11.4384
をみて	-11.4385
だろうし	-11.4387
$,	-11.4388
金沢	-11.4389
だったんだ	-11.4391
だち	-11.4392
呈	-11.4394
ベンチ	-11.4397
▁yield	-11.4398
二日	-11.4404
im	-11.4412
ツボ	-11.4413
こともあって	-11.4414
生し	-11.4415
イラク	-11.4415
▁difficult	-11.4417
華やか	-11.4418
思い込	-11.4418
一括	-11.4421
かわ	-11.4424
▁force	-11.4432
ie	-11.4432
▁explain	-11.4436
▁seen	-11.4436
off	-11.4438
コール	-11.4438
いているの	-11.4441
はやっぱり	-11.4446
堤	-11.4447
があるか	-11.4447
挿入	-11.4451
▁popular	-11.4451
オランダ	-11.4452
デン	-11.4454
移民	-11.4458
In	-11.4459
なってしまいます	-11.446
▁quality	-11.4462
してき	-11.4462
閉鎖	-11.4465
とすれば	-11.4466
静岡	-11.4467
ベランダ	-11.4467
聖書	-11.4472
like	-11.4473
▁presence	-11.4474
トルコ	-11.4476
▁corresponding	-11.448
磨き	-11.4481
au	-11.4482
斜	-11.4482
メイ	-11.4486
written	-11.4488
▁word	-11.4489
演劇	-11.449
割り切	-11.449
何時	-11.4492
頑	-11.4499
上級	-11.4499
bar	-11.4499
ポール	-11.4502
▁typical	-11.4503
ナン	-11.4504
紛	-11.4511
追い込	-11.4512
しているか	-11.4513
▁Further	-11.4516
▁sum	-11.4517
そっち	-11.4517
▁device	-11.4518
ベテラン	-11.4518
ountries	-11.4521
召	-11.4523
叱	-11.4523
箸	-11.4525
釣れ	-11.4526
▁states	-11.4529
:**	-11.453
▁building	-11.453
メンテナンス	-11.4534
▁training	-11.4537
していたの	-11.454
レジ	-11.4542
▁母	-11.4544
だったのだ	-11.4548
のことが	-11.4549
▁volume	-11.4559
結び	-11.4562
鉛	-11.4563
ケーブル	-11.4566
掌	-11.4568
▁avoid	-11.4569
祥	-11.4573
殴	-11.4581
げな	-11.4584
▁signal	-11.4585
▁British	-11.4585
しょうがない	-11.4585
代わ	-11.4587
でもあり	-11.4587
▁easi	-11.4588
たまには	-11.4589
el	-11.4589
警備	-11.459
ra	-11.4591
▁critical	-11.4592
プリント	-11.4593
たどり着	-11.4595
すいません	-11.46
ts	-11.4606
黄金	-11.4607
モニター	-11.4608
貧乏	-11.4616
▁say	-11.4616
▁cost	-11.4616
▁That	-11.4617
細菌	-11.4619
棟	-11.462
うっかり	-11.4623
庶	-11.4624
▁share	-11.4625
るんですよ	-11.4627
Data	-11.4628
い物	-11.4642
スイーツ	-11.4643
しゃ	-11.4646
イマイチ	-11.4647
▁どんな	-11.4652
▁view	-11.4652
espite	-11.4652
rs	-11.4652
▁sets	-11.4655
戯	-11.4658
ワクチン	-11.4658
¥	-11.4659
をもら	-11.466
赴	-11.4661
たところで	-11.4663
▁ratio	-11.4664
適正	-11.4667
▁square	-11.4667
▁pass	-11.4668
やっていた	-11.4668
倉庫	-11.4671
のかどうか	-11.4671
ハードル	-11.4672
▁University	-11.4676
ソファ	-11.4676
▁sure	-11.4678
総会	-11.4681
になったので	-11.4683
たんだ	-11.4685
岐阜	-11.4685
遍	-11.4686
フィルム	-11.4686
▁▼	-11.4689
なっていた	-11.469
string	-11.4695
のかと	-11.4696
みや	-11.47
きながら	-11.4701
split	-11.4708
酸化	-11.4709
呆れ	-11.471
幽	-11.4711
?』	-11.4714
碑	-11.4715
座席	-11.4716
太鼓	-11.4716
ma	-11.4718
▁thought	-11.4718
ったんです	-11.4719
▁give	-11.4722
気象	-11.4725
マット	-11.473
くか	-11.4732
だす	-11.4733
▁Be	-11.4733
ございました	-11.4734
出血	-11.4735
セール	-11.4735
▁third	-11.4736
▁receptor	-11.4736
挫	-11.4737
▁six	-11.4737
下落	-11.4737
ないんだ	-11.4739
推薦	-11.4739
▁w	-11.4739
▁again	-11.4741
及ぼ	-11.4741
▁offer	-11.4741
▁situation	-11.4744
?」「	-11.4746
千葉県	-11.4748
隷	-11.475
▁though	-11.4751
デッキ	-11.4754
エコ	-11.4754
ったりする	-11.4754
my	-11.4754
上海	-11.4757
se	-11.476
▁exact	-11.476
なき	-11.4766
▁improve	-11.4767
吹き	-11.4769
あったので	-11.4769
ヘッド	-11.4769
しているところ	-11.4772
敢え	-11.4773
助かり	-11.4775
遺跡	-11.4776
▁things	-11.4776
プログラミング	-11.478
等々	-11.4781
国境	-11.4782
▁move	-11.4785
取り除	-11.4786
いちいち	-11.4788
$.	-11.479
んだね	-11.4792
▁appropriate	-11.4792
県民	-11.4792
ぼう	-11.4792
スレッド	-11.4793
コー	-11.4793
んでく	-11.4799
frequency	-11.48
▁genetic	-11.4802
つまらない	-11.4803
銅	-11.4805
東海	-11.4806
▁何か	-11.4809
浩	-11.4809
▁count	-11.4811
もしも	-11.4812
エビ	-11.4813
燃	-11.4815
▁aspect	-11.4818
read	-11.482
components	-11.4824
▁special	-11.4827
発酵	-11.483
それはそれで	-11.4831
▁初	-11.4831
味わえ	-11.4832
▁mass	-11.4832
にしよう	-11.4833
ませんし	-11.4834
ゲート	-11.4838
反射	-11.4838
さそう	-11.4843
もうひとつ	-11.4843
名乗	-11.4844
収ま	-11.4847
在日	-11.4847
衝突	-11.485
有機	-11.4851
なのかもしれない	-11.4851
なんでしょうか	-11.4852
ピザ	-11.4854
▁shows	-11.4854
▁email	-11.4855
"]	-11.4858
をきっかけに	-11.486
躊躇	-11.4863
▁words	-11.4867
だろうけど	-11.487
▁status	-11.4871
いじ	-11.4871
ったんだ	-11.4871
くなってしまった	-11.4877
ゆえ	-11.4877
かよ	-11.4878
歩行	-11.4878
でもいい	-11.4888
▁direct	-11.4889
無線	-11.489
いいこと	-11.4891
!?	-11.4892
▁although	-11.4893
▁half	-11.4894
キット	-11.4897
カイ	-11.4897
ぇ	-11.4898
かったら	-11.4899
ミッション	-11.4899
押し付け	-11.49
▁毎日	-11.4902
火災	-11.4904
▁discuss	-11.4904
▁personal	-11.4906
GO	-11.4906
ていこう	-11.4908
英会話	-11.4908
▁infection	-11.4909
ったことを	-11.4912
断り	-11.4913
おめでとうございます	-11.4916
全般	-11.492
小麦	-11.4922
キラキラ	-11.4924
▁measurement	-11.4926
伊勢	-11.4928
スコア	-11.4933
都道府県	-11.4933
なんかも	-11.4934
市町村	-11.4941
プリ	-11.4942
▁created	-11.4942
▁far	-11.4946
りませんでした	-11.4947
アカウント	-11.4947
みせ	-11.4948
)』	-11.495
是	-11.4952
▁max	-11.4955
ラップ	-11.4957
たらす	-11.4962
着け	-11.4965
▁demonstrate	-11.4967
▁u	-11.4969
ビジョン	-11.497
上野	-11.4971
わけじゃない	-11.4972
拠	-11.4973
哉	-11.4973
座り	-11.4974
デザート	-11.4975
逃れ	-11.4977
▁estimate	-11.4978
ころから	-11.4979
咳	-11.498
痴	-11.498
さんへ	-11.4981
架	-11.4981
自作	-11.4982
んですけどね	-11.4984
join	-11.4987
すき	-11.4987
蜂	-11.4988
▁ネット	-11.4991
廷	-11.4992
つなげ	-11.4992
理屈	-11.4993
医薬品	-11.4993
▁software	-11.4993
いだろう	-11.4996
溝	-11.4997
▁once	-11.5002
国産	-11.5004
いわば	-11.5006
ぶん	-11.5006
ジャン	-11.5008
察し	-11.5009
▁analyse	-11.501
抱き	-11.5011
預か	-11.5014
Re	-11.5015
▁added	-11.5015
なかったです	-11.5016
▁resulting	-11.5017
OB	-11.5018
たいへん	-11.5021
うるさい	-11.5022
技能	-11.5023
るわ	-11.5025
澄	-11.5026
どうですか	-11.5028
粛	-11.5028
仲良	-11.5028
桁	-11.5032
助成	-11.5037
乙	-11.5038
ジー	-11.5039
ガード	-11.5039
店頭	-11.5042
供	-11.5045
ってき	-11.5047
▁Additional	-11.5048
こともでき	-11.5048
チラシ	-11.5054
んぼ	-11.5055
きません	-11.5055
▁multi	-11.5055
殻	-11.5056
メダル	-11.5061
振る舞	-11.5064
膨ら	-11.5064
宏	-11.5065
きっちり	-11.5075
扇	-11.5075
ったんですけど	-11.5077
ピッタリ	-11.5077
▁pattern	-11.5077
チェ	-11.5082
大地	-11.5085
▁French	-11.5086
蜜	-11.5086
Step	-11.509
打って	-11.509
ハリ	-11.5093
閉め	-11.5093
迷い	-11.5094
撮れ	-11.5095
▁air	-11.5098
日光	-11.5098
業種	-11.51
)$	-11.5102
生き残	-11.5102
はわからない	-11.5102
OL	-11.5103
亭	-11.5106
メソッド	-11.5106
抹	-11.5108
ウソ	-11.511
りませんが	-11.511
▁regular	-11.5111
待た	-11.5111
▁deep	-11.5112
▁numpy	-11.5114
バナナ	-11.5117
足し	-11.5117
ジャック	-11.5121
やってくれ	-11.5121
ガソリン	-11.5122
主題	-11.5122
てしま	-11.5124
水曜	-11.5125
▁compare	-11.5128
登校	-11.5133
大阪府	-11.5134
Table	-11.5136
sqrt	-11.5137
▁said	-11.5139
淡	-11.5141
β	-11.5142
ポップ	-11.5147
▁米	-11.5148
Type	-11.5149
▁昨	-11.5151
需	-11.5152
イスラエル	-11.5153
薦め	-11.5154
茨城	-11.5157
李	-11.5158
当該	-11.5159
くんは	-11.5162
留め	-11.5164
まくり	-11.5165
でやる	-11.5167
くんが	-11.5171
▁variation	-11.5171
嫌が	-11.5173
▁affect	-11.5173
▁combination	-11.5173
▁location	-11.5175
控	-11.518
枯れ	-11.5186
ハーブ	-11.5188
れてい	-11.5188
いったら	-11.5188
惚れ	-11.5198
ゲー	-11.5207
いことが	-11.5212
喰	-11.5215
弄	-11.5215
ってしまって	-11.5217
▁CD	-11.5217
▁products	-11.5219
乗り込	-11.5219
sites	-11.5221
唱え	-11.5221
海軍	-11.5222
通い	-11.5225
東洋	-11.5229
いたところ	-11.5231
なりました	-11.5232
▁usually	-11.5235
択	-11.5237
▁早	-11.5238
たばかり	-11.5239
ギャップ	-11.5243
塁	-11.5246
ハッキリ	-11.5247
▁idea	-11.525
きまして	-11.5252
いち	-11.5257
或	-11.5258
はどうな	-11.5262
かわいそう	-11.5262
甲斐	-11.5266
りましたが	-11.5266
留守	-11.5267
幹事	-11.5269
▁どうも	-11.5271
受け継	-11.5273
よほど	-11.5274
だなんて	-11.5274
▁keep	-11.5276
したため	-11.528
学歴	-11.5284
ていたり	-11.5286
くよう	-11.5286
ぶつけ	-11.5289
現時	-11.529
暴れ	-11.529
▁gain	-11.5296
▁うち	-11.5297
たいてい	-11.5298
▁film	-11.5298
國	-11.5299
なくていい	-11.5299
ただいま	-11.5301
▁team	-11.5301
フレーズ	-11.5303
取り込	-11.5316
後期	-11.5317
▁principle	-11.5318
ってくれて	-11.5319
メキシコ	-11.5321
雀	-11.5321
支部	-11.5322
いように	-11.5322
零	-11.5326
▁call	-11.5327
はあ	-11.5327
救い	-11.5328
lready	-11.5333
ファースト	-11.5338
▁基本	-11.5339
idx	-11.5343
().	-11.5344
ルー	-11.5344
'],	-11.5345
ワケ	-11.5347
系統	-11.5348
▁reduce	-11.535
▁De	-11.5353
テクノロジー	-11.5353
えー	-11.5353
茹で	-11.5355
ミー	-11.5358
\\	-11.536
▁つい	-11.5361
ラク	-11.5363
パッ	-11.5363
▁characteristic	-11.5364
ってきている	-11.5365
いるようです	-11.5365
持ち帰	-11.5365
分離	-11.5368
るのかな	-11.5368
体型	-11.5369
前年	-11.5369
▁correct	-11.5374
どうすれば	-11.5375
ゴールド	-11.5376
学べ	-11.5377
をしても	-11.5378
なくてもいい	-11.5378
財団	-11.5381
はぁ	-11.5381
在籍	-11.5384
return	-11.5385
▁service	-11.5391
ハンドル	-11.5392
▁published	-11.5396
▁ああ	-11.5396
▁community	-11.5398
∀	-11.5399
濁	-11.5403
火曜	-11.5406
もなかった	-11.5407
▁それと	-11.5407
まん	-11.5409
ネガティブ	-11.541
カウンセリング	-11.541
曖昧	-11.5412
▁business	-11.5416
条例	-11.5419
温暖	-11.5421
くださ	-11.5421
メイド	-11.5421
assert	-11.5422
res	-11.5425
たらいい	-11.5426
▁little	-11.5426
▁formula	-11.5432
gen	-11.5432
北部	-11.5433
化け	-11.5433
しき	-11.5435
涼	-11.5435
▁leading	-11.5435
戴	-11.5437
村上	-11.5441
アップデート	-11.5441
▁release	-11.5442
頑張れ	-11.5445
よろしい	-11.5445
オス	-11.5446
▁cross	-11.5447
許せ	-11.5449
やらない	-11.5451
▁statistical	-11.5451
▁items	-11.5451
################	-11.5453
te	-11.5454
vs	-11.5454
▁phase	-11.5459
するところ	-11.5459
双	-11.5461
墨	-11.5464
ギリシャ	-11.5464
人民	-11.5465
パラ	-11.5471
近隣	-11.5473
チキン	-11.5473
▁crucial	-11.5477
プレッシャー	-11.5479
珍	-11.5479
納め	-11.5481
▁build	-11.5487
出掛け	-11.5487
気付か	-11.5487
▁men	-11.5489
穂	-11.5491
にゃ	-11.5492
芳	-11.5492
▁economic	-11.5495
重量	-11.5496
望み	-11.5497
ないですよね	-11.5497
キープ	-11.5499
ネギ	-11.5499
▁graph	-11.5501
▁久し	-11.5506
にしてお	-11.5506
売り上げ	-11.551
みたいなの	-11.5513
エア	-11.5514
レギュラー	-11.5515
MS	-11.5518
▁->	-11.5519
になるか	-11.552
どなた	-11.5524
▁yet	-11.5524
マネージャー	-11.5524
ストップ	-11.5526
家計	-11.5528
▁effort	-11.5531
まくって	-11.5531
▁break	-11.5533
留ま	-11.5535
僧	-11.5538
振興	-11.554
徳川	-11.5542
マルチ	-11.5547
ニオイ	-11.5547
にやって	-11.5549
▁友	-11.5551
だったりする	-11.5553
れているの	-11.5553
▁nature	-11.5556
綻	-11.5557
style	-11.5561
▁Posted	-11.5562
短時間	-11.5562
であれ	-11.5564
なかったから	-11.5567
FF	-11.5568
まっすぐ	-11.5569
▁RNA	-11.5573
精度	-11.5575
パイ	-11.5576
url	-11.5576
になっていく	-11.5576
やさしい	-11.5577
ニコニコ	-11.5581
傾け	-11.5582
▁世界	-11.5583
うような	-11.5583
片方	-11.5585
モチーフ	-11.5588
▁alternative	-11.5589
ことば	-11.5589
▁medical	-11.5591
▁ax	-11.5594
なきゃいけない	-11.5595
ヴ	-11.5596
またまた	-11.5597
合同	-11.5597
オブジェクト	-11.5599
op	-11.5599
リフォーム	-11.5601
キャベツ	-11.5616
▁Final	-11.5617
夜間	-11.5618
菅	-11.5619
マウス	-11.5619
圭	-11.5621
りします	-11.5627
いてください	-11.5627
神話	-11.5629
総裁	-11.5636
ro	-11.5636
騰	-11.5638
CG	-11.5643
捜	-11.5643
ひとりで	-11.5643
辻	-11.5643
検定	-11.5648
遊べ	-11.5648
いるのか	-11.5649
ってしま	-11.5651
めば	-11.5651
舟	-11.5653
(;	-11.5655
そんなことは	-11.5656
なくなってしま	-11.5659
木曜	-11.566
見送	-11.5661
ソフトウェア	-11.5661
▁pressure	-11.5661
▁assess	-11.5662
決し	-11.5665
四国	-11.5672
天下	-11.5672
腫れ	-11.5673
サル	-11.5677
float	-11.5677
たんです	-11.5678
発動	-11.5682
ていたのです	-11.5682
▁book	-11.5682
一家	-11.5684
鎮	-11.5692
おやつ	-11.5692
▁event	-11.5693
▁逆	-11.5695
スイス	-11.5696
▁comparison	-11.5698
ko	-11.5699
組み立て	-11.57
減り	-11.5706
▁Dur	-11.5706
▁St	-11.5706
▁skills	-11.5707
グラ	-11.5707
柿	-11.5711
▁height	-11.5713
ねぎ	-11.5714
さんのお	-11.5715
朝鮮人	-11.5719
電波	-11.5726
ドラゴン	-11.5728
受け付け	-11.5729
侍	-11.5734
愚痴	-11.5734
※	-11.5737
ふるさと	-11.5737
ローズ	-11.5737
いること	-11.5738
励ま	-11.5739
フェア	-11.574
ビニール	-11.5742
陸上	-11.5744
▁National	-11.5745
農薬	-11.575
さんたち	-11.575
▁tools	-11.5755
[:,	-11.5757
羨まし	-11.5757
▁John	-11.5757
良し	-11.5758
ものすごい	-11.5759
かぁ	-11.5762
けて	-11.5763
いったん	-11.5764
スタジアム	-11.5767
置き換え	-11.577
ギャラリー	-11.5772
▁rule	-11.5773
弥	-11.5774
▁observation	-11.5774
approximately	-11.5775
ストレッチ	-11.5777
クッキー	-11.5783
tic	-11.5785
広ま	-11.5785
将棋	-11.5785
▁plot	-11.5786
国土	-11.5787
クセ	-11.5788
みる	-11.5788
ァ	-11.5789
まわ	-11.579
小泉	-11.579
三郎	-11.5793
づつ	-11.5794
ことではない	-11.5795
▁come	-11.5797
校長	-11.5799
ボート	-11.58
どういうこと	-11.5806
プチ	-11.5806
run	-11.5809
がつき	-11.5811
スケール	-11.5812
カラ	-11.5818
ェ	-11.5821
だぞ	-11.5822
縫	-11.5822
にしていた	-11.5823
ていたの	-11.5828
ビン	-11.5828
なっていく	-11.5832
▁近	-11.5834
▁もっと	-11.5839
可愛く	-11.584
たようで	-11.5842
カーテン	-11.5845
ってもらった	-11.5846
ちょっとだけ	-11.5847
▁z	-11.5847
▁needs	-11.5847
のかしら	-11.5848
三重	-11.5849
問わ	-11.5849
曰く	-11.585
▁Table	-11.5851
ジョ	-11.5851
ふさわしい	-11.5852
▁activiti	-11.5854
明か	-11.5855
しかた	-11.5856
To	-11.5857
ミュージシャン	-11.5859
▁procedure	-11.5863
婆	-11.5864
▁resources	-11.5865
ミン	-11.5869
▁score	-11.5869
原子力	-11.5873
▁request	-11.5874
▁files	-11.5874
真っ白	-11.5874
らしき	-11.5875
▁law	-11.5879
pt	-11.5881
婦人	-11.5884
るそうです	-11.5884
▁food	-11.5885
▁From	-11.5885
実務	-11.5888
るかな	-11.5888
write	-11.5893
ピー	-11.5894
ふた	-11.5894
味付け	-11.5895
著し	-11.5895
週刊	-11.5896
忙	-11.5897
唾	-11.5898
療	-11.59
死者	-11.59
▁done	-11.5904
::	-11.5905
▁contains	-11.5905
▁contribute	-11.5907
▁led	-11.5908
▁integer	-11.5914
課程	-11.5915
愉	-11.5916
五十	-11.5917
昭	-11.5917
カレンダー	-11.5924
キリ	-11.5929
重く	-11.593
enough	-11.5932
▁US	-11.5933
唄	-11.5936
▁makes	-11.5937
リサイクル	-11.5941
かす	-11.5941
ユニーク	-11.5944
▁block	-11.5944
洒落	-11.5947
紗	-11.5948
叶え	-11.5948
嫌われ	-11.5952
じゃないの	-11.5952
▁definition	-11.5953
たまらない	-11.596
フェス	-11.5963
げに	-11.5963
かけられ	-11.5964
いっても	-11.5969
マニア	-11.5972
瓦	-11.5973
まり	-11.5973
なもので	-11.5973
タンク	-11.5975
やれる	-11.5975
ぱ	-11.5978
栄え	-11.5979
▁property	-11.5981
わりと	-11.5982
color	-11.5983
count	-11.5985
贈り	-11.5986
奇妙	-11.599
▁require	-11.5994
朱	-11.5998
ベン	-11.5999
...(	-11.6
やること	-11.6001
メス	-11.6002
呑	-11.6004
▁<=	-11.6005
インチ	-11.6007
あらためて	-11.6009
若く	-11.601
▁attempt	-11.601
▁insight	-11.601
さらな	-11.6011
制定	-11.6011
よぉ	-11.6012
オークション	-11.6014
買取	-11.6014
ブレイク	-11.6017
適応	-11.6018
焼酎	-11.602
lib	-11.6021
ってしまうの	-11.6023
しまい	-11.6023
ラウンド	-11.6024
バラエティ	-11.6025
タワー	-11.6027
交差点	-11.6027
おばさん	-11.6029
ナイフ	-11.6032
スマート	-11.6033
知らん	-11.6035
勃	-11.6035
▁Using	-11.6037
ぶっ	-11.604
ものなの	-11.604
かける	-11.6041
▁Other	-11.6042
お尋ね	-11.6043
表彰	-11.6044
しちゃった	-11.6044
シール	-11.6046
高知	-11.6046
おめでとう	-11.6048
してもらって	-11.6052
▁matter	-11.6058
此	-11.6058
ta	-11.6061
嫉	-11.6061
DNA	-11.6062
からず	-11.6063
〇〇	-11.6067
▁especial	-11.6068
▁pathway	-11.6069
カス	-11.6069
ようになって	-11.607
デカ	-11.6071
曇り	-11.6072
▁concept	-11.6072
▁テレビ	-11.6072
キム	-11.6075
世界一	-11.6075
ズレ	-11.6076
井上	-11.6076
笑え	-11.6084
つけられ	-11.6087
li	-11.6088
リハビリ	-11.6088
四季	-11.6089
醸	-11.609
しまして	-11.609
入門	-11.6093
▁reduced	-11.6095
▁conduct	-11.6095
▁traditional	-11.6097
na	-11.6097
妃	-11.6103
もろ	-11.6105
group	-11.6106
Amazon	-11.6108
▁!=	-11.6109
委	-11.6112
長女	-11.6117
ton	-11.6117
付属	-11.6117
▁reference	-11.6118
おかず	-11.6118
蒼	-11.612
なくちゃ	-11.6121
▁received	-11.6121
ゲン	-11.6123
List	-11.6123
ホーム	-11.6126
requires	-11.6126
lo	-11.6127
▁binding	-11.6127
検察	-11.6129
内科	-11.6129
ガーデン	-11.6131
ちん	-11.6131
▁人間	-11.6136
シンガポール	-11.6138
ひどく	-11.6138
中旬	-11.6139
わー	-11.6139
入り込	-11.6141
賭け	-11.6142
おき	-11.6143
議長	-11.6145
系列	-11.6147
▁axis	-11.6153
ってるから	-11.6154
ハッピー	-11.6155
知らぬ	-11.6157
錠	-11.6159
諭	-11.6161
random	-11.6162
結びつ	-11.6163
SE	-11.6163
▁reflect	-11.6164
熱く	-11.6166
ロール	-11.6168
いいね	-11.6169
▁My	-11.6169
打ち上げ	-11.6169
▁angle	-11.6175
メモリ	-11.6176
弦	-11.6176
いのだ	-11.6178
base	-11.6181
休業	-11.6181
ベビー	-11.6185
トロ	-11.6186
URO	-11.619
ではないのです	-11.6191
グレー	-11.6192
ってしまうと	-11.6193
ボトル	-11.6193
下旬	-11.6195
養成	-11.6195
柔らかく	-11.6196
なにも	-11.62
つづけ	-11.6201
りん	-11.6202
ブレ	-11.6202
てくれない	-11.6202
試行	-11.6204
いかん	-11.6205
大阪市	-11.6206
引き継	-11.6207
スピーカー	-11.6207
ha	-11.6209
ツイッター	-11.6211
譜	-11.6212
experiments	-11.6215
ざ	-11.6218
イラン	-11.622
瞑	-11.622
はじめまして	-11.6221
たもので	-11.6229
é	-11.623
カニ	-11.6231
config	-11.6235
▁German	-11.6236
公立	-11.6237
わよ	-11.6239
相次	-11.624
やれば	-11.6243
トゥ	-11.6251
がないから	-11.6253
授	-11.6258
マリ	-11.6258
驚か	-11.6258
▁pair	-11.6259
戦場	-11.6262
こころ	-11.6263
めた	-11.6266
監査	-11.6267
いいか	-11.6269
field	-11.627
にあたり	-11.6271
やったら	-11.6272
配達	-11.6274
懇	-11.6275
市役所	-11.6277
ミックス	-11.6277
▁basic	-11.6277
真理	-11.628
冷め	-11.6284
りたいと	-11.6285
めぐり	-11.6287
ってるんだ	-11.6288
▁benefit	-11.6289
▁discover	-11.629
卑	-11.6291
ドゥ	-11.6295
▁record	-11.6299
してたら	-11.6301
自律	-11.6304
▁begin	-11.6305
たりします	-11.6305
ent	-11.6307
ないかな	-11.6308
やらせ	-11.631
柏	-11.631
あれだけ	-11.6314
衰	-11.6314
当てはま	-11.6317
崇	-11.6318
チップ	-11.632
ポジティブ	-11.6322
一点	-11.633
">	-11.6331
▁minutes	-11.6332
仕入れ	-11.6333
なろう	-11.6334
れたり	-11.6336
高原	-11.6337
っぷり	-11.6338
っていくの	-11.6339
めぐる	-11.6339
▁夕	-11.6345
▁opportunit	-11.6346
岩手	-11.6347
っち	-11.6349
揺ら	-11.635
ですけどね	-11.635
バリ	-11.6351
会館	-11.6353
DF	-11.6354
みそ	-11.6356
▁old	-11.6359
ケイ	-11.6359
リス	-11.636
シニア	-11.6361
顎	-11.6362
ボー	-11.6362
河川	-11.6362
業務	-11.6364
ヨン	-11.6364
自衛	-11.6365
鐘	-11.6367
隙	-11.6369
海老	-11.6372
▁determined	-11.6373
砕	-11.6374
▁According	-11.6375
▁mice	-11.6377
甲子園	-11.6378
Id	-11.6385
貯め	-11.6388
代目	-11.6389
油断	-11.6391
わかってい	-11.6396
間近	-11.6396
ミュージック	-11.6396
今季	-11.6397
引き受け	-11.6397
っておる	-11.6398
外科	-11.6398
▁ways	-11.6401
揺	-11.6407
かかわ	-11.641
美女	-11.6412
img	-11.6413
}}	-11.6413
ブリ	-11.6413
▁Use	-11.6415
祀	-11.6418
インフラ	-11.6419
可哀	-11.6422
ish	-11.6424
ゼミ	-11.6426
ているだけ	-11.6427
▁objects	-11.6435
アラフォー	-11.6435
言い切	-11.6436
領土	-11.6441
手放	-11.6443
)/	-11.6443
マジック	-11.6445
落ち着き	-11.6446
成し	-11.6448
▁taken	-11.6453
ビュー	-11.6454
阻	-11.6456
現し	-11.6456
ていか	-11.6458
としています	-11.6458
におい	-11.6459
放射線	-11.6459
あるわけ	-11.646
おかげ	-11.646
かさ	-11.6462
いたしまして	-11.6462
ヨーグルト	-11.6462
になったこと	-11.6462
寺の	-11.6463
器用	-11.6463
愕	-11.6465
招き	-11.6467
まえ	-11.6468
くま	-11.6468
～(	-11.6468
ゾ	-11.6469
郵	-11.6473
ばいい	-11.6474
カラダ	-11.6474
いられない	-11.6475
ラッシュ	-11.6476
見合	-11.648
頼み	-11.6484
群馬	-11.6486
べく	-11.6487
ir	-11.6489
フロア	-11.6489
ユー	-11.649
();	-11.6493
拍子	-11.6494
コンクリート	-11.6495
▁guide	-11.6501
ておられ	-11.6501
どん	-11.6501
▁machine	-11.6503
▁professional	-11.6504
▁began	-11.6509
藤原	-11.6509
▁contrast	-11.6511
▁Al	-11.6514
side	-11.6519
マッチング	-11.652
にすること	-11.6521
ところまで	-11.6522
デフォルト	-11.6524
きれ	-11.6525
ておい	-11.6525
ようになり	-11.653
垣	-11.653
⇒	-11.6531
えた	-11.6531
プライド	-11.6531
しん	-11.6535
小遣	-11.6536
インドネシア	-11.6536
爺	-11.6541
ライヴ	-11.6542
再建	-11.6542
外来	-11.6542
紐	-11.6543
しょ	-11.6544
てきたの	-11.6545
いつまで	-11.6549
学院	-11.655
一口	-11.6554
クイズ	-11.6555
html	-11.6555
ビザ	-11.6556
コンテスト	-11.6558
てあげる	-11.6559
すこし	-11.656
生存	-11.6561
スポンサー	-11.6564
ブラシ	-11.6565
擬	-11.6565
知能	-11.6569
ビットコイン	-11.6571
えて	-11.6571
プレミアム	-11.6573
▁sometime	-11.6573
クレジット	-11.6577
になってしまい	-11.6587
上場	-11.6589
▁policy	-11.6591
▁decimal	-11.6592
デバイス	-11.6602
炉	-11.6603
▁ones	-11.6606
寄り添	-11.6606
ぐこと	-11.6608
栃木	-11.661
こっそり	-11.6611
借金	-11.6612
▁item	-11.6612
▁political	-11.6614
params	-11.6615
遂げ	-11.6616
▁genome	-11.6619
▁Each	-11.6619
(),	-11.6621
do	-11.6622
衰え	-11.6623
いもので	-11.6623
▁昼	-11.6623
▁映画	-11.663
わたくし	-11.6633
三日	-11.6635
柴	-11.6636
おにぎり	-11.6637
アカデミー	-11.6638
▁▁▁▁▁▁▁▁▁▁▁▁▁▁▁	-11.6639
NY	-11.6641
▁brain	-11.6641
好奇	-11.6643
GW	-11.6645
てやる	-11.6645
漫	-11.6646
▁probability	-11.6647
おなか	-11.6651
たいな	-11.6652
VS	-11.6655
欲しく	-11.6658
Fig	-11.6658
睡	-11.6662
オシャレ	-11.6664
愛し	-11.6667
魚の	-11.667
▁never	-11.6672
▁distinct	-11.6674
～?	-11.6674
原料	-11.6675
ることもあります	-11.6676
DJ	-11.6677
屋台	-11.6677
ヽ	-11.6677
かなあ	-11.6681
るようです	-11.6681
強め	-11.6681
心地よ	-11.6684
テンポ	-11.6689
▁strategi	-11.6689
横断	-11.669
ってたの	-11.6696
レーザー	-11.6697
})	-11.6699
拘束	-11.6699
棲	-11.6702
むのは	-11.6704
立た	-11.6705
いかと	-11.6707
ランニング	-11.6711
ボン	-11.6712
にわたり	-11.6712
綴	-11.6715
焼肉	-11.6716
解け	-11.6717
ちゃいました	-11.6719
row	-11.672
洲	-11.6721
US	-11.6722
スクリーン	-11.6723
オペラ	-11.6725
征	-11.6726
転が	-11.6729
キレ	-11.6729
)=	-11.6732
コンパクト	-11.6733
掲	-11.6734
広め	-11.6735
推移	-11.6735
▁piece	-11.6736
捕ま	-11.6737
▁format	-11.6737
凛	-11.6738
軌道	-11.6739
になってお	-11.6739
▁stress	-11.674
▁super	-11.6742
づけ	-11.6743
どうにも	-11.6743
デー	-11.6745
▁visit	-11.6748
嶋	-11.6751
▁music	-11.6753
(^^;	-11.6754
▁selection	-11.6754
ているところ	-11.6757
▁prior	-11.6757
▁services	-11.6758
見通	-11.6761
▁{'	-11.6764
なんだな	-11.6773
年賀状	-11.6773
title	-11.6775
振り回	-11.6775
シロ	-11.6776
兵衛	-11.6778
語学	-11.6779
▁center	-11.678
フォー	-11.6782
れるようにな	-11.6787
▁去	-11.6787
▁generate	-11.6789
追いつ	-11.6789
▁collect	-11.679
▁スター	-11.6792
▁South	-11.6793
▁note	-11.6794
観音	-11.6798
受け取り	-11.6799
(=	-11.6801
batch	-11.6802
▁divid	-11.6803
どっか	-11.6803
ていけ	-11.6803
▁activation	-11.6804
マネジメント	-11.6804
ヤマ	-11.6806
教わ	-11.6808
ないことに	-11.681
鳴き	-11.6814
ax	-11.6814
ないことは	-11.6814
意地	-11.6815
どき	-11.6815
▁command	-11.6821
カジノ	-11.6821
ことなく	-11.6827
にしては	-11.683
前進	-11.6832
ソフトバンク	-11.6832
Key	-11.6832
していたのです	-11.6839
こうか	-11.6842
弾き	-11.6842
にしてみ	-11.6844
すご	-11.6851
どうや	-11.6852
れるように	-11.6852
如何	-11.6856
▁creat	-11.6858
不利	-11.6858
せてもら	-11.6858
▁flow	-11.6859
ことがあった	-11.6865
諾	-11.6865
▁store	-11.6866
肥満	-11.6867
フェ	-11.6867
陛	-11.6871
りすぎ	-11.6871
入れ替え	-11.6872
パチンコ	-11.6876
しかなかった	-11.6878
雛	-11.688
ブドウ	-11.688
▁style	-11.6882
凹	-11.6882
▁curve	-11.6885
してるの	-11.6885
loss	-11.6887
不妊	-11.6887
▁calculate	-11.6888
ひろ	-11.6888
痢	-11.6888
借入	-11.6889
わかっている	-11.6889
orz	-11.6891
▁contact	-11.6893
▁earlier	-11.6897
につれて	-11.6898
入会	-11.6899
デル	-11.6906
寒く	-11.6906
▁どこ	-11.6907
▁log	-11.691
手がけ	-11.6912
いてあ	-11.6914
ソウ	-11.6914
ホスト	-11.6914
たんですけど	-11.6916
耗	-11.692
ひき	-11.6925
▁label	-11.6926
詠	-11.6928
box	-11.6929
▁away	-11.6932
ステ	-11.6936
ウェブ	-11.6936
埋	-11.6936
▁Results	-11.6937
▁Once	-11.6937
▁useful	-11.6938
イオン	-11.6939
橋本	-11.6947
〔	-11.6949
垂れ	-11.695
食器	-11.6951
▁高校	-11.6954
同年	-11.6957
かということ	-11.6959
捕まえ	-11.696
拘	-11.6961
▁follows	-11.6961
はこれまで	-11.6961
▁national	-11.6965
▁Co	-11.6968
年末年始	-11.6968
▁late	-11.697
千万	-11.6974
▁limited	-11.6976
役所	-11.6976
sin	-11.6976
!「	-11.6976
▁direction	-11.6976
axis	-11.6977
滑り	-11.6977
てきたので	-11.6979
平安	-11.698
魔王	-11.698
斜め	-11.6981
SA	-11.6982
特許	-11.6982
衛	-11.6984
▁Then	-11.6984
支出	-11.6986
▁Is	-11.6988
▁attention	-11.6989
望まし	-11.6991
女神	-11.6993
いやいや	-11.6996
YouTube	-11.6997
▁↓	-11.6997
▁--	-11.6997
獄	-11.6998
いなあ	-11.6998
specific	-11.7003
目立ち	-11.7003
ボーカル	-11.7006
▁character	-11.7006
▁row	-11.7008
覚醒	-11.701
只	-11.7011
Д	-11.7011
▁largest	-11.7013
me	-11.7017
サーバ	-11.7017
ロゴ	-11.7017
ON	-11.7022
▁component	-11.7023
むように	-11.7025
‘	-11.7028
ステキ	-11.7029
してやる	-11.703
▁measured	-11.7032
GB	-11.7035
テラス	-11.7037
▁success	-11.7039
マリア	-11.7039
ずれ	-11.7045
殺害	-11.7045
もとても	-11.7047
妖怪	-11.7047
福島県	-11.7047
クオリティ	-11.705
テレ	-11.705
英雄	-11.705
隊長	-11.705
名所	-11.7051
▁writing	-11.7053
出版社	-11.7053
ミネラル	-11.7053
▁black	-11.7054
桐	-11.7054
ススメ	-11.7055
女子高	-11.7055
槍	-11.7057
症候群	-11.7057
いことだ	-11.7059
AV	-11.7061
▁caus	-11.7062
▁inter	-11.7062
マネー	-11.7064
気持	-11.7064
いくらでも	-11.7067
アフィリエイト	-11.707
うことも	-11.707
うなら	-11.707
スタンダード	-11.7072
KO	-11.7072
用紙	-11.7073
盛り込	-11.7074
遷	-11.7075
持ち上げ	-11.7079
働け	-11.7079
さまに	-11.708
休め	-11.708
▁selected	-11.7081
▁communication	-11.7081
デイ	-11.7082
内臓	-11.7082
つま	-11.7084
▁past	-11.7085
止まり	-11.7085
かったから	-11.7087
名作	-11.7088
池田	-11.7089
ca	-11.7089
ライフスタイル	-11.7091
新入	-11.7093
ってほし	-11.7094
アス	-11.7095
▁tree	-11.7096
こんで	-11.7097
胎	-11.7098
ディスプレイ	-11.7099
アラ	-11.71
藍	-11.7101
ナス	-11.7101
▁implement	-11.7103
唆	-11.7104
ガキ	-11.7106
range	-11.7106
差し出	-11.7106
▁lack	-11.7107
一同	-11.7108
▁solve	-11.7109
補正	-11.7113
▁python	-11.7113
早稲田	-11.7116
▁mathematical	-11.7117
どうなるか	-11.7117
芯	-11.7121
プリン	-11.7123
愚	-11.7124
陶	-11.7127
発し	-11.7127
times	-11.7128
まずい	-11.7129
積も	-11.7132
▁meaning	-11.7135
とりわけ	-11.7137
りんご	-11.7138
百万	-11.714
代替	-11.7141
あいさつ	-11.7142
遠征	-11.7148
阻止	-11.7154
哀	-11.7155
なことが	-11.7155
▁confirm	-11.7156
秋葉	-11.716
ィ	-11.7162
こめ	-11.7162
ドクター	-11.7166
待ち合わせ	-11.7168
顧問	-11.7168
すれ違	-11.717
▁Do	-11.7172
くださいませ	-11.7173
笹	-11.7174
コラーゲン	-11.7174
やかで	-11.7174
エサ	-11.7175
▁head	-11.7177
わざと	-11.7182
▁小さ	-11.7183
▁num	-11.7184
ハーフ	-11.7186
▁date	-11.7189
なかったのか	-11.7189
前田	-11.7189
歩け	-11.719
ブラウザ	-11.719
ったよ	-11.7197
app	-11.7204
▁inside	-11.7205
スタンス	-11.7206
▁etc	-11.7207
相応	-11.7208
意気	-11.7209
になってい	-11.721
インテリア	-11.7212
そら	-11.7214
重点	-11.7216
隈	-11.7218
▁春	-11.7219
▁ten	-11.7221
成田	-11.7221
牡	-11.7223
ラス	-11.7224
ジャニーズ	-11.7226
プロデュース	-11.7227
ムリ	-11.7227
縄	-11.7229
MAX	-11.7231
フリ	-11.7231
冥	-11.7232
ファー	-11.7233
たんですが	-11.7233
▁put	-11.7234
たくさんある	-11.7236
づ	-11.7238
虹	-11.7238
してきます	-11.724
OP	-11.7241
view	-11.7242
磯	-11.7247
リアルタイム	-11.7247
革新	-11.7248
私立	-11.7249
▁accurate	-11.725
開拓	-11.725
am	-11.725
大豆	-11.7253
いのでは	-11.7254
リンゴ	-11.7255
っつ	-11.7256
突き	-11.7258
たため	-11.7261
しいこと	-11.7261
display	-11.7262
▁subsequent	-11.7262
CC	-11.7264
分散	-11.7264
いような	-11.7267
▁claim	-11.7269
▁interval	-11.7269
step	-11.7271
ワタシ	-11.7271
はやめ	-11.7274
したことは	-11.7274
いつものように	-11.7274
野生	-11.7275
フライ	-11.7276
▁id	-11.7278
ホラー	-11.7283
ドライ	-11.7286
Apple	-11.7287
シア	-11.7292
気持ちよく	-11.7293
テル	-11.7293
たらしい	-11.7296
←	-11.7297
▁apply	-11.73
滋賀	-11.7301
茶色	-11.7301
)]	-11.7302
▁$$\	-11.7303
拉	-11.7306
グランド	-11.7306
▁message	-11.7308
桂	-11.7308
あっち	-11.7312
カビ	-11.7315
▁Tips	-11.7315
▁association	-11.7316
▁hard	-11.7318
捧げ	-11.7321
アプリケーション	-11.7322
ハロウィン	-11.7322
おっぱい	-11.7324
▁central	-11.7325
だそうで	-11.7326
握り	-11.7326
マイル	-11.7327
シェフ	-11.7332
でかい	-11.7334
sub	-11.7334
▁May	-11.7334
AC	-11.7335
秘書	-11.7336
凡	-11.7337
有意	-11.7341
▁Ca	-11.7342
パニック	-11.7344
揃い	-11.7345
はいかが	-11.735
はできません	-11.7353
ときどき	-11.7353
清掃	-11.7353
▁quick	-11.7355
一族	-11.7355
▁convert	-11.7356
▁employ	-11.7359
配当	-11.7362
▁Pro	-11.7363
▁war	-11.7363
▁Remember	-11.7366
タダ	-11.7367
▁friends	-11.7368
▁examine	-11.7371
▁speed	-11.7372
相対	-11.7375
だよな	-11.7377
よっ	-11.7377
総務	-11.7378
▁car	-11.7379
たようです	-11.738
pplied	-11.7382
戒	-11.7384
labels	-11.7386
命じ	-11.7389
こっちの	-11.7392
ぉ	-11.7394
ているうちに	-11.7398
惑星	-11.7398
ギフト	-11.7399
のですよ	-11.7399
load	-11.74
剥	-11.7401
ヤバイ	-11.7401
アニメーション	-11.7402
りつつ	-11.7402
グラム	-11.7404
まったり	-11.7405
錬	-11.7408
'])	-11.7411
タウン	-11.7413
da	-11.7413
PT	-11.7416
おられ	-11.7418
本能	-11.7424
んじゃないか	-11.7425
ろうか	-11.7432
庭園	-11.7433
見込	-11.7433
be	-11.7435
▁organization	-11.7435
ラム	-11.7435
務大臣	-11.7436
儀式	-11.7437
ac	-11.7438
MP	-11.7439
バラバラ	-11.744
壌	-11.7442
〝	-11.7444
▁◇	-11.7445
混じ	-11.7445
update	-11.7447
知名	-11.7449
るといい	-11.745
クリアネオ	-11.7456
名付け	-11.7458
艶	-11.7459
ディスク	-11.7461
ってはい	-11.7462
上品	-11.7463
node	-11.7464
董	-11.7465
評論	-11.747
軟	-11.747
装飾	-11.7471
十五	-11.7471
染ま	-11.7471
sis	-11.7471
施工	-11.7474
プロレス	-11.7475
がけ	-11.7476
▁experimental	-11.7477
ていける	-11.748
ってくださ	-11.7481
バレエ	-11.7481
おいし	-11.7484
▁uses	-11.7486
ハナ	-11.7486
IN	-11.7493
▁write	-11.7494
▁land	-11.7496
るようにして	-11.7498
メッセージ	-11.7498
引け	-11.7501
ジョー	-11.7504
絶好	-11.7504
はちゃんと	-11.7507
classes	-11.7508
双子	-11.7508
br	-11.7509
歴代	-11.7509
bit	-11.7511
こうや	-11.7512
掛かり	-11.7516
岡田	-11.7516
object	-11.7524
サポーター	-11.7525
LP	-11.7526
ka	-11.7527
かろう	-11.7527
うま	-11.7528
まき	-11.7531
こなす	-11.7532
ids	-11.7535
白く	-11.7536
まく	-11.7538
パク	-11.754
性別	-11.7541
歌舞伎	-11.7541
ませんよ	-11.7541
ソング	-11.7545
其	-11.7547
シルバー	-11.7549
ハー	-11.7551
String	-11.7554
▁{}	-11.7555
らないこと	-11.7556
えん	-11.7557
あう	-11.7558
ロケ	-11.756
どうしたら	-11.7561
▁material	-11.7563
bounds	-11.7565
▁root	-11.7567
number	-11.7569
陵	-11.7569
物価	-11.7573
▁Д	-11.7574
出入り	-11.7574
小規模	-11.7576
ばっか	-11.7578
うのも	-11.7578
斎	-11.7581
▁produc	-11.7585
もらい	-11.7586
けばいい	-11.7586
レール	-11.7586
廻	-11.7587
永久	-11.7587
MF	-11.7589
苑	-11.7589
庵	-11.7592
南北	-11.7594
BL	-11.7594
荒ら	-11.7594
▁Var	-11.7594
▁feel	-11.7595
default	-11.7597
くなるので	-11.7598
アンテナ	-11.7598
赤く	-11.7599
手続	-11.76
習い	-11.76
そいつ	-11.7601
徳島	-11.7604
吠え	-11.7605
エキス	-11.7606
ムダ	-11.7607
杖	-11.7613
石鹸	-11.7614
乙女	-11.7615
▁particle	-11.7615
▁today	-11.7616
交え	-11.7617
高速道路	-11.7618
ファンタジー	-11.762
五月	-11.762
ってもらい	-11.7623
コンサルタント	-11.7626
ルイ	-11.7628
ほんとうに	-11.763
いいけど	-11.763
組み込	-11.7633
るんだよ	-11.7633
遥か	-11.7633
香川	-11.7634
禅	-11.7635
ツッコミ	-11.7635
おしゃべり	-11.7636
んだろ	-11.764
▁education	-11.7641
センサー	-11.7641
次世	-11.7641
コンピューター	-11.7642
▁young	-11.7643
ゴー	-11.7644
調和	-11.7647
拍	-11.7652
いいです	-11.7654
▁representation	-11.7654
しんどい	-11.7655
文部	-11.7656
ling	-11.7659
ころに	-11.7664
オープニング	-11.7666
がないの	-11.7674
詮	-11.7675
レポ	-11.7676
丹	-11.7677
ったんだけど	-11.7677
▁contribution	-11.768
パスポート	-11.7681
白髪	-11.7681
▁display	-11.7682
ナビ	-11.7683
定食	-11.7683
ウォーキング	-11.7684
トータル	-11.7684
丁目	-11.7685
メタル	-11.7685
▁turn	-11.7686
武士	-11.7688
ないだろうか	-11.7689
▁art	-11.7692
▁processe	-11.7693
をつか	-11.7695
になっているの	-11.7695
instance	-11.7699
▁node	-11.77
・・・?	-11.77
ハッ	-11.7701
▁pro	-11.7701
ケガ	-11.7702
共和国	-11.7702
奥の	-11.7704
▁limit	-11.7709
スペック	-11.7711
パスワード	-11.7712
▁named	-11.7713
ated	-11.7714
▁prediction	-11.7716
辱	-11.7717
委託	-11.7721
松山	-11.7722
儲か	-11.7725
訊	-11.7726
収容	-11.7728
るべく	-11.7731
Value	-11.7735
カネ	-11.7736
▁manuscript	-11.7737
泊まり	-11.7738
▁sides	-11.774
フェスティバル	-11.7749
アリス	-11.775
花見	-11.775
▁season	-11.7751
占領	-11.7753
動物園	-11.7755
(^_^;)	-11.7756
位置づけ	-11.7757
鼓	-11.7757
小川	-11.7759
佐々木	-11.7761
FA	-11.7762
乗っ	-11.7763
▁double	-11.7763
▁operations	-11.7764
ひな	-11.7766
オーラ	-11.7767
ダンジョン	-11.7768
▁detail	-11.777
漠	-11.777
分子	-11.7771
▁maximum	-11.7772
チョ	-11.7772
杏	-11.7773
衆議院	-11.7776
釘	-11.7777
埋ま	-11.7778
乳酸	-11.7779
めて	-11.778
彫刻	-11.7781
そうなる	-11.7781
クン	-11.7781
じゃね	-11.7782
郭	-11.7783
ヤン	-11.7789
達し	-11.779
▁torch	-11.7791
メタ	-11.7793
▁frequent	-11.7793
ってるけど	-11.7794
matrix	-11.7795
効き	-11.7796
▁generated	-11.7797
ピース	-11.7797
しっとり	-11.7799
▁market	-11.7799
ディレクター	-11.7802
しなくては	-11.7804
▁assay	-11.7806
CS	-11.7807
池袋	-11.7807
kwarg	-11.7808
後継	-11.7811
普	-11.7812
▁longer	-11.7819
ナチュラル	-11.7821
わぁ	-11.7821
やってた	-11.7821
むのが	-11.7827
吸い	-11.7831
▁formation	-11.7831
在り	-11.7831
▁novel	-11.7832
▁天	-11.7833
▁あまり	-11.7837
きわめ	-11.7838
気な	-11.7843
ul	-11.7844
れるので	-11.7845
なくてはいけない	-11.7846
笛	-11.7848
之助	-11.7849
骨折	-11.7849
終始	-11.785
兎	-11.7852
ドラフト	-11.7855
浮き	-11.7856
プレート	-11.7857
連盟	-11.7858
頓	-11.7858
ゆとり	-11.786
広大	-11.786
▁rules	-11.7863
カツ	-11.7864
▁respect	-11.7865
珠	-11.7865
引っかか	-11.7867
トー	-11.7867
▁correlation	-11.7869
くら	-11.787
シューズ	-11.787
浜松	-11.7876
かみ	-11.7877
▁European	-11.7877
中島	-11.7877
FW	-11.7877
悪感	-11.7877
掲示	-11.788
サプライズ	-11.788
ましたか	-11.788
エイ	-11.7882
あがり	-11.7884
アマゾン	-11.7885
メンタル	-11.7889
文化財	-11.789
安保	-11.7893
締結	-11.7893
AT	-11.7894
キャ	-11.7894
無茶	-11.7895
秩	-11.7897
チャット	-11.7898
ギルド	-11.7902
痕	-11.7902
バックアップ	-11.7902
▁remember	-11.7904
選出	-11.7906
歩み	-11.7907
▁visual	-11.7908
歯磨き	-11.791
バツ	-11.791
いつのまに	-11.7912
ようになる	-11.7912
りましょう	-11.7912
▁column	-11.7913
待て	-11.7915
▁equivalent	-11.7917
▁adding	-11.7917
▁License	-11.7922
まじ	-11.7923
りして	-11.7923
タレ	-11.7924
東南	-11.7924
はなんと	-11.7926
▁sense	-11.7928
だからね	-11.7928
▁adult	-11.7929
パイロット	-11.793
▁exposure	-11.7931
ヘア	-11.7934
▁rapid	-11.7937
慰安	-11.7938
コウ	-11.7939
和田	-11.7941
▁mode	-11.7941
したあと	-11.7942
ハンド	-11.7945
ないなら	-11.7949
るものが	-11.7951
▁define	-11.7953
Mac	-11.7954
イー	-11.7958
専攻	-11.796
LED	-11.796
専門学校	-11.796
go	-11.7965
自家	-11.7968
武蔵	-11.7968
json	-11.797
pairs	-11.7974
かなければ	-11.7977
くなってきました	-11.7978
よっぽど	-11.7978
の幸	-11.7978
ウケ	-11.7981
▁←	-11.7982
キャンパス	-11.7983
has	-11.7984
▁options	-11.7986
ジャム	-11.7988
みかん	-11.799
pos	-11.7993
讐	-11.7994
むか	-11.7994
そうなんです	-11.7999
▁proposed	-11.7999
クス	-11.8003
静岡県	-11.8003
▁condition	-11.8005
ER	-11.8007
課税	-11.8009
▁Data	-11.8009
lin	-11.801
覗き	-11.8012
ナイ	-11.8013
ドラッグストア	-11.8013
じゃないけど	-11.8016
まんま	-11.8016
rate	-11.8017
つぶし	-11.802
やすさ	-11.8021
こん	-11.8025
三菱	-11.8026
ur	-11.8027
っているんです	-11.8028
わからなかった	-11.8029
バイオ	-11.8031
▁authors	-11.8031
引っ張り	-11.8035
どうかと	-11.8035
scale	-11.8036
▁variet	-11.8039
坂本	-11.8045
れてる	-11.8048
▁careful	-11.8054
バタバタ	-11.8054
物足りな	-11.8055
飲料	-11.8056
ns	-11.8056
アナログ	-11.8058
▁analyz	-11.8061
...)	-11.8061
アクセサリー	-11.8061
博多	-11.8065
ーズ	-11.8067
▁calculation	-11.8071
THE	-11.8073
ターミナル	-11.8074
▁gives	-11.8074
check	-11.8074
はこれで	-11.8075
▁division	-11.8076
▁map	-11.8076
拙	-11.8077
ニア	-11.808
ループ	-11.8081
鷹	-11.8082
▁tf	-11.8082
伊豆	-11.8083
!」「	-11.8086
▁derived	-11.8086
ていたこと	-11.8088
竿	-11.8093
チョイス	-11.8097
▁coefficient	-11.81
PV	-11.81
▁cultural	-11.8101
ミーティング	-11.8102
▁slow	-11.8104
青山	-11.8105
▁red	-11.8105
モー	-11.8108
喜ば	-11.8109
尾根	-11.8109
ころは	-11.8114
ていたのだ	-11.8115
やっても	-11.8115
東西	-11.8121
ないんだけど	-11.8121
ガチ	-11.8122
▁match	-11.8124
▁movement	-11.8127
animals	-11.8127
▁大阪	-11.8128
気遣	-11.8128
問いかけ	-11.8131
クリーニング	-11.8132
ムード	-11.8134
プラスチック	-11.8135
お家	-11.8135
▁figure	-11.8136
商人	-11.8136
っちゃん	-11.8136
▁Another	-11.8138
換え	-11.8145
鳩山	-11.8146
ましたら	-11.8147
未知	-11.8147
ぐらいで	-11.8147
麻生	-11.8147
四十	-11.8148
rd	-11.8149
いけれど	-11.8151
yourself	-11.8152
▁Of	-11.8156
CT	-11.8157
生まれ変わ	-11.816
てはいけません	-11.8161
ディズニー	-11.8163
ぼんやり	-11.8165
▁report	-11.8166
▁load	-11.817
エジプト	-11.817
大国	-11.817
くなってしまう	-11.8171
税務	-11.8171
↑	-11.8171
トーナメント	-11.8173
ri	-11.8175
(__)	-11.8177
群れ	-11.8178
体育館	-11.8178
(※	-11.8179
スピーチ	-11.8181
山崎	-11.8187
ところだ	-11.8187
こりゃ	-11.8188
些	-11.819
technology	-11.819
かま	-11.819
(\	-11.819
尺	-11.8192
んや	-11.8193
おばちゃん	-11.8195
▁relevant	-11.8195
すすめ	-11.8197
アナウンサー	-11.82
ウィ	-11.8202
キツ	-11.8202
らか	-11.8203
alpha	-11.8205
ワード	-11.8205
mg	-11.8206
calculated	-11.8206
▁indicat	-11.821
▁document	-11.821
秘め	-11.821
▁importance	-11.8211
▁company	-11.8211
データベース	-11.8211
▁comes	-11.8212
薫	-11.8215
▁simply	-11.8216
暑く	-11.8216
result	-11.8217
休止	-11.8218
BGM	-11.8219
医学部	-11.8222
ゴン	-11.8225
▁white	-11.8226
▁fields	-11.8226
Fi	-11.8226
▁agent	-11.8226
深ま	-11.8229
ハゲ	-11.8229
相撲	-11.8229
▁task	-11.8229
▁秋	-11.823
ence	-11.8231
▁heat	-11.8234
▁HIV	-11.8234
見受け	-11.8235
返り	-11.8235
アイコン	-11.8236
グル	-11.8239
ビジュアル	-11.8242
months	-11.8242
めざ	-11.8245
▁basis	-11.8245
フラ	-11.8249
教養	-11.825
▁America	-11.825
old	-11.8251
▁His	-11.8251
もないし	-11.8252
▁parameter	-11.8255
ガール	-11.8255
漏	-11.8256
ラベル	-11.8257
マイケル	-11.8258
釜	-11.8259
frame	-11.826
names	-11.8261
手掛け	-11.8261
しょっちゅう	-11.8261
んだろうけど	-11.8264
いたし	-11.8265
返答	-11.8268
あき	-11.8269
れてしまった	-11.8269
▁molecule	-11.8269
粗大	-11.8269
SD	-11.827
牽	-11.8271
落下	-11.8272
スプレー	-11.8275
晋	-11.8277
▁exercise	-11.8278
ていって	-11.8283
クエスト	-11.8286
バグ	-11.8286
▁media	-11.8287
TBS	-11.8291
シャッター	-11.8294
定員	-11.8294
ver	-11.8295
編み	-11.8297
合戦	-11.8298
イケ	-11.83
辞任	-11.83
et	-11.8302
佐賀	-11.8303
蹴り	-11.8304
れれば	-11.8304
ことはでき	-11.8305
淳	-11.8307
level	-11.8314
ちょい	-11.8315
道場	-11.8315
観念	-11.8321
グッ	-11.8322
VR	-11.8323
point	-11.8326
姓	-11.8328
▁won	-11.8328
◎	-11.8329
宝石	-11.833
不能	-11.8333
あるんだ	-11.8334
▁resistance	-11.8337
いいですよ	-11.8337
のち	-11.8344
▁±	-11.8344
猪	-11.8345
アミノ	-11.8347
動き出	-11.8349
亮	-11.8349
▁q	-11.835
▁◎	-11.835
where	-11.8351
大賞	-11.8352
蒸し	-11.8355
抱きしめ	-11.8355
フィルター	-11.8355
▁muscle	-11.8356
オバマ	-11.8359
遽	-11.8359
屋上	-11.836
罠	-11.8363
先祖	-11.8363
▁took	-11.8365
スパ	-11.8366
踏み出	-11.8367
につれ	-11.8368
クレ	-11.8368
▁going	-11.8369
保全	-11.8372
▁built	-11.8377
ないですよ	-11.8377
イチゴ	-11.8377
にち	-11.8379
▁新し	-11.838
カーブ	-11.8381
▁update	-11.8383
諸島	-11.8385
▁North	-11.8386
▁experiment	-11.8392
起源	-11.8393
ブラウン	-11.8394
鉱	-11.8394
▁▁▁▁▁▁▁▁▁▁▁	-11.8395
▁Methods	-11.8397
太田	-11.84
玲	-11.84
甘み	-11.8403
cos	-11.8408
おかしな	-11.8408
▁outside	-11.841
▁じゃあ	-11.8413
潰れ	-11.8414
こい	-11.8415
コップ	-11.8417
▁taking	-11.8418
▁Background	-11.8421
学術	-11.8422
いんですよ	-11.8422
ボロボロ	-11.8422
ドキュメンタリー	-11.8422
bin	-11.8423
審判	-11.8423
宇	-11.8423
order	-11.8424
てるから	-11.8426
守護	-11.8426
ガイ	-11.8429
ロープ	-11.8432
ジュニア	-11.8437
不審	-11.8438
両国	-11.844
もご	-11.8441
ray	-11.8441
ケンカ	-11.8442
訣	-11.8442
みても	-11.8444
▁setting	-11.8444
につける	-11.8444
工学	-11.8444
ゲル	-11.8445
胴	-11.8445
しちゃ	-11.8446
見当た	-11.8447
山下	-11.8451
おっしゃる	-11.8454
ベイ	-11.8455
mo	-11.8463
estimated	-11.8464
でございま	-11.8466
▁dataset	-11.8467
BookLive	-11.8469
帆	-11.8471
sp	-11.8473
ギャグ	-11.8474
ウン	-11.8474
併せ	-11.8475
うわ	-11.8478
央	-11.8479
びっくりした	-11.848
。【	-11.8481
なかに	-11.8483
ical	-11.8483
ナシ	-11.8486
▁gas	-11.8487
痒	-11.8489
山梨	-11.849
ましておめでとうございます	-11.8491
▁General	-11.8492
高山	-11.8492
まさかの	-11.8493
狩	-11.8496
▁materials	-11.8497
到底	-11.8498
▁Similar	-11.8505
呑み	-11.8515
メンズ	-11.8515
フジ	-11.8515
オヤジ	-11.8515
アップル	-11.8518
フォーク	-11.8519
▁conclusion	-11.8519
んですかね	-11.8521
▁save	-11.8521
キッズ	-11.8521
ったほうが	-11.8522
▁Example	-11.8524
停車	-11.8529
るんだけど	-11.8529
八幡	-11.8529
コチラ	-11.853
ダーク	-11.8531
たあと	-11.8532
海洋	-11.8532
立地	-11.8532
於	-11.8535
▁box	-11.8537
近づけ	-11.8539
かったこと	-11.8539
町内	-11.854
気付き	-11.8541
ご用	-11.8543
▁ground	-11.8544
▁starting	-11.8545
すみ	-11.8545
▁host	-11.8547
▁α	-11.8548
ウクライナ	-11.8549
フォーラム	-11.8549
ではないです	-11.8549
レー	-11.855
タコ	-11.855
▁reach	-11.8553
申し出	-11.8556
▁Consider	-11.8556
'),	-11.8559
いちご	-11.8559
年々	-11.856
ないんですよ	-11.856
ランナー	-11.8561
機動	-11.8561
暖かく	-11.8565
噴	-11.8566
愉し	-11.8566
クラウド	-11.8567
西日本	-11.8567
にはお	-11.8568
まっ	-11.857
version	-11.8573
なんだかんだ	-11.8574
中山	-11.8575
伯	-11.8577
▁internal	-11.8577
▁doesn	-11.8579
。>	-11.858
ガル	-11.8581
内職	-11.8583
ぷ	-11.8583
▁Day	-11.8584
ミラー	-11.8585
公正	-11.8585
迅速	-11.859
(←	-11.8592
美少女	-11.8592
コク	-11.8593
したくなる	-11.8593
一品	-11.8593
ホット	-11.8596
▁Research	-11.8598
エージェント	-11.8599
漆	-11.86
メガ	-11.86
篇	-11.8603
▁literature	-11.8603
formed	-11.8604
マッチングアプリ	-11.8604
シナ	-11.8605
疹	-11.8606
ホン	-11.8606
ステーキ	-11.8607
しめ	-11.8607
▁female	-11.8607
use	-11.8608
トレーナー	-11.861
BS	-11.8611
箱根	-11.8611
インター	-11.8612
width	-11.8616
リニューアル	-11.8616
エッセイ	-11.8617
すり	-11.8618
わん	-11.8623
▁dose	-11.8624
▁examin	-11.8626
速く	-11.8628
▁private	-11.8629
んじゃないかな	-11.8629
▁believe	-11.8629
炭酸	-11.863
solving	-11.8632
かったな	-11.8633
いいもの	-11.8636
修了	-11.8638
ナンパ	-11.8641
ting	-11.8642
▁heart	-11.8642
チャンピオン	-11.8646
しなきゃ	-11.8646
延々	-11.8646
head	-11.8649
■	-11.865
ったんですが	-11.8652
おかけ	-11.8653
https	-11.8654
▁takes	-11.8654
整形	-11.866
あったけど	-11.8665
ってね	-11.8668
無縁	-11.8669
支店	-11.867
▁membrane	-11.867
ゲイ	-11.8671
フォルダ	-11.8672
▁wherea	-11.8673
エレベーター	-11.8675
製薬	-11.8676
下ろ	-11.8678
鳥取	-11.8679
ガンガン	-11.8679
になったと	-11.868
墜	-11.8682
鯖	-11.8684
いんだけど	-11.8685
武田	-11.8686
year	-11.8686
▁cover	-11.8687
ぷら	-11.869
貰い	-11.8692
サバ	-11.8693
▁最終	-11.8693
▁'''	-11.8694
握手	-11.8698
手配	-11.8698
胡	-11.87
initialize	-11.8702
シワ	-11.8702
洗浄	-11.8703
NA	-11.8707
ってきたので	-11.871
フレット	-11.8722
アイディア	-11.8722
ション	-11.8723
愛媛	-11.8725
▁allowed	-11.8727
きゃ	-11.8728
▁historical	-11.8728
フジテレビ	-11.8729
リセット	-11.8729
cell	-11.8729
うさぎ	-11.873
混ざ	-11.8732
るみたい	-11.8734
▁Pre	-11.8734
▁collection	-11.8734
参議院	-11.8736
fully	-11.8736
函館	-11.8736
中野	-11.8738
いただい	-11.874
]:	-11.8741
るようで	-11.8741
related	-11.8742
穀	-11.8743
思い浮かべ	-11.8743
▁英	-11.8744
してくれない	-11.8744
ふざけ	-11.8745
▁started	-11.8746
▁efficient	-11.8746
匿名	-11.8747
▁occurr	-11.8748
▁circle	-11.8752
▁sp	-11.8752
sources	-11.8753
align	-11.8753
馬の	-11.8755
恭	-11.8756
チョン	-11.8757
シャン	-11.8758
抜け出	-11.8759
▁accept	-11.8759
太り	-11.876
面倒くさ	-11.876
小野	-11.8764
▁damage	-11.8767
折り	-11.8768
おじいちゃん	-11.8769
▁management	-11.8771
司令	-11.8772
わり	-11.8773
ているのに	-11.8775
城の	-11.8775
濃く	-11.8775
▁official	-11.8777
院長	-11.8778
いいところ	-11.8779
〟	-11.878
▁恋	-11.8781
はじまり	-11.8783
莉	-11.8787
さき	-11.8789
▁真	-11.879
ているようで	-11.879
ぴ	-11.8791
▁FX	-11.8791
▁background	-11.8791
乗れ	-11.8792
ber	-11.8794
格納	-11.8794
平野	-11.8794
ワールドカップ	-11.8794
デジカメ	-11.8797
遡	-11.8797
教習	-11.8798
公明	-11.8798
▁digit	-11.8798
provides	-11.8799
term	-11.8799
▁remaining	-11.88
下ろし	-11.8801
▁enable	-11.8802
自民	-11.8803
ホンダ	-11.8804
大戦	-11.8804
▁train	-11.8805
賑やか	-11.8809
とすると	-11.881
パンチ	-11.8812
くそ	-11.8813
▁forces	-11.8814
曲げ	-11.8815
泣け	-11.8816
(^^;)	-11.8817
▁kind	-11.8819
▁international	-11.8821
ムービー	-11.8822
上達	-11.8822
道徳	-11.8826
仕立て	-11.8826
セルフ	-11.8827
テクニカル	-11.8827
main	-11.8829
csv	-11.8831
OR	-11.8831
てみたり	-11.8831
北陸	-11.8831
藻	-11.8832
▁なんだか	-11.8834
いいから	-11.8836
save	-11.8837
淡々	-11.8837
File	-11.8837
蚊	-11.8839
いますよ	-11.8839
▁multiply	-11.8845
情けな	-11.8845
阿部	-11.8845
world	-11.8846
ているよう	-11.8846
▁pain	-11.8847
空中	-11.8849
三角	-11.8849
末期	-11.8849
ってみたら	-11.885
建造	-11.8855
▁demand	-11.886
選抜	-11.8861
石垣	-11.8861
黒ず	-11.8862
ないんですよね	-11.8863
ったりします	-11.8865
漏ら	-11.8867
▁mention	-11.8869
▁room	-11.887
▁fall	-11.8873
目玉	-11.8873
ものなのか	-11.8873
享	-11.8873
▁locat	-11.8874
▁batch	-11.8875
りまして	-11.8875
カッコイイ	-11.8877
View	-11.8878
▁相手	-11.8879
もないので	-11.888
カメラマン	-11.8881
見据え	-11.8888
ワンコ	-11.889
溜め	-11.8895
っちゃいました	-11.8895
刊行	-11.8897
サム	-11.8899
▁images	-11.89
error	-11.89
取扱	-11.8902
いかもしれない	-11.8903
ようかな	-11.8905
top	-11.8906
▁wild	-11.8907
▁Europe	-11.8907
あちら	-11.8908
ふく	-11.8908
ピックアップ	-11.8908
ありませんか	-11.891
コスメ	-11.891
しゅ	-11.8911
アカ	-11.8911
みえ	-11.8911
▁Most	-11.8912
▽	-11.8913
▁width	-11.8916
やり直	-11.8918
existing	-11.8918
通り過ぎ	-11.8921
シェ	-11.8923
レオ	-11.8923
戻し	-11.8925
▁divide	-11.8925
呉	-11.8925
累	-11.8926
▁Greek	-11.8926
▁density	-11.8928
スロー	-11.8928
identity	-11.893
▁forward	-11.8933
▁PM	-11.8933
ad	-11.8934
串	-11.8934
もあまり	-11.8934
ガラ	-11.8935
▁Japan	-11.8936
CA	-11.8936
▁explor	-11.8936
▁Next	-11.8936
スゴイ	-11.8937
DB	-11.8939
ないかと	-11.8941
西部	-11.8943
concepts	-11.8944
にかけ	-11.8944
気合	-11.8946
いということ	-11.8947
ors	-11.8947
▁二人	-11.8947
▁face	-11.8952
▁former	-11.8953
リサーチ	-11.8954
highest	-11.8957
到来	-11.8957
ましたけど	-11.8959
arr	-11.896
ロビー	-11.8961
公認	-11.8961
鋼	-11.8963
ジャーナリスト	-11.8964
トム	-11.8967
;)	-11.8971
▁York	-11.8971
▁なん	-11.8972
いっ	-11.8974
二階	-11.8977
ヴェ	-11.8978
洞窟	-11.8978
したいの	-11.8978
憤	-11.8981
梗	-11.8982
かもしれん	-11.8985
プラットフォーム	-11.8985
弱く	-11.8987
刺さ	-11.8988
ミュージカル	-11.8989
presented	-11.899
映え	-11.8991
ポリ	-11.8991
il	-11.9
薬剤	-11.9001
▁copy	-11.9002
ありがと	-11.9003
▁actually	-11.9005
まつわ	-11.9006
トーン	-11.9006
オート	-11.9009
"""	-11.9009
モモ	-11.9011
ってことは	-11.9011
rapy	-11.9014
皮肉	-11.9014
たのも	-11.9014
にしない	-11.9014
ちゃいけない	-11.9017
▁discussion	-11.9018
ES	-11.9018
▁Title	-11.9018
踏み込	-11.9019
phi	-11.902
てはい	-11.902
ex	-11.902
やると	-11.9023
EP	-11.9023
中東	-11.9024
スパイス	-11.9026
蝶	-11.9026
帰れ	-11.9029
セイ	-11.9029
▁provid	-11.903
やろ	-11.9031
区域	-11.9031
▁大学	-11.9032
graph	-11.9033
イス	-11.9034
▁fixed	-11.9035
ぺ	-11.9036
セカンド	-11.9041
急ぎ	-11.9042
はなし	-11.9043
嗜	-11.9045
こま	-11.9045
術後	-11.905
いいのですが	-11.9051
さんにも	-11.9052
▁Two	-11.9052
キミ	-11.9052
ショウ	-11.9052
▁page	-11.9056
WEB	-11.9057
グラン	-11.9063
簡易	-11.9063
▁title	-11.9067
授乳	-11.9067
ラボ	-11.9068
堺	-11.9069
動脈	-11.907
不信	-11.907
フィギュア	-11.9073
AS	-11.9076
ワンピース	-11.9077
サンタ	-11.9081
いたんです	-11.9085
アンプ	-11.909
within	-11.909
牙	-11.9091
カリフォルニア	-11.9091
だったし	-11.9091
社会保険	-11.9092
military	-11.9093
status	-11.9094
エリート	-11.9095
せいぜ	-11.9097
▁script	-11.9098
▁symptom	-11.9099
クレーム	-11.9102
あま	-11.9102
Wi	-11.9103
一周	-11.9105
県立	-11.9106
あらす	-11.9108
衛星	-11.911
放出	-11.9111
ランプ	-11.9112
▁biological	-11.9117
おいた	-11.9117
ヲ	-11.9117
市街地	-11.9119
サンド	-11.912
▁beyond	-11.9121
坊主	-11.9122
新築	-11.9122
渇	-11.9123
▁micro	-11.9126
ge	-11.9126
五年	-11.9128
詫び	-11.913
見出	-11.913
ley	-11.9131
鳥の	-11.9133
パイプ	-11.9133
▁details	-11.9135
見つかり	-11.9136
替わ	-11.9137
人目	-11.9143
罵	-11.9144
日銀	-11.9144
大宮	-11.9144
▁Many	-11.9146
プレス	-11.9148
ダイヤモンド	-11.9151
▁immediate	-11.9151
褒	-11.9154
そうにな	-11.9154
り続け	-11.9157
ネック	-11.9161
そこら	-11.9161
一角	-11.9163
海上	-11.9164
▁valuable	-11.9168
アク	-11.917
▁slight	-11.917
一個	-11.9171
space	-11.9171
ゆり	-11.9175
▁float	-11.9177
▁白	-11.9177
言うまでもな	-11.9178
▁Through	-11.918
▁Le	-11.9181
▁molecular	-11.9181
和歌山	-11.9181
д	-11.9182
なかったんです	-11.9182
なんてこと	-11.9183
▁engineer	-11.9188
のかなと	-11.9188
履き	-11.9189
出向	-11.9191
作物	-11.9192
くありません	-11.9192
近藤	-11.9194
▁Can	-11.9194
かったし	-11.9194
マイナー	-11.9195
コメ	-11.9198
▁carried	-11.9202
▁angles	-11.9203
会合	-11.9203
いまして	-11.9203
ふう	-11.9205
行え	-11.9205
ごめんね	-11.9205
ないかもしれません	-11.9207
リボン	-11.9211
反日	-11.9212
▁daily	-11.9212
忠実	-11.9212
なりたい	-11.9214
柚	-11.9214
LA	-11.9215
恐る	-11.922
unit	-11.9221
途上	-11.9222
スウェーデン	-11.9223
▁leave	-11.9224
吉野	-11.9226
講じ	-11.9227
▁はい	-11.9229
ベンチャー	-11.923
遠の	-11.9231
▁BC	-11.9233
触り	-11.9235
コンディション	-11.9237
▁predict	-11.9237
▁Earth	-11.9241
)))	-11.9242
▁Conclusion	-11.9243
▁testing	-11.9244
ぐっと	-11.9244
.__	-11.9244
フォ	-11.9248
燃焼	-11.9249
三浦	-11.9249
とれ	-11.9249
生態	-11.9249
applications	-11.9251
create	-11.9254
よな	-11.9254
ヒロ	-11.9256
坪	-11.9258
▁diverse	-11.9259
そそ	-11.9263
カウント	-11.9265
絡み	-11.9267
EX	-11.927
▁feature	-11.927
賊	-11.927
浅草	-11.9271
▁man	-11.9272
filename	-11.9272
密度	-11.9274
大橋	-11.9276
レイアウト	-11.9276
つぶ	-11.9277
いたのです	-11.9278
show	-11.9278
くれました	-11.9279
つなぐ	-11.928
になっちゃう	-11.9281
ピッチ	-11.9282
じゃないかと	-11.9283
▁triangle	-11.9286
ぶっちゃけ	-11.9288
擁護	-11.9288
しまいました	-11.9288
クル	-11.929
工芸	-11.9291
本店	-11.9293
いよね	-11.9294
▁seek	-11.9298
▁scores	-11.9299
アナウンス	-11.9299
ギア	-11.9299
▁friend	-11.93
ful	-11.9303
がっかり	-11.9303
タカ	-11.9306
エール	-11.9307
しまいます	-11.9308
ラグビー	-11.9309
▁「...	-11.931
モーター	-11.931
どうしようもない	-11.9312
こむ	-11.9312
嘉	-11.9314
さんとの	-11.9315
▁冬	-11.9315
▁valid	-11.9315
▁mM	-11.9316
ドール	-11.9317
MV	-11.9318
腫	-11.9319
▁やっと	-11.9322
▁rest	-11.9323
ペットボトル	-11.9324
▁res	-11.9325
狭く	-11.9328
おさら	-11.9328
▁####	-11.9329
TPP	-11.9329
▁protect	-11.933
▁memory	-11.9331
しまって	-11.9331
ネイル	-11.9333
ポート	-11.9333
▁almost	-11.9333
サボ	-11.9334
▁>=	-11.9334
イノベーション	-11.9335
一段	-11.9336
▁science	-11.9337
水平	-11.9343
武道	-11.9351
▁detect	-11.9351
・・」	-11.9353
▁......	-11.9357
見渡	-11.9358
まった	-11.936
栓	-11.936
アンチ	-11.9363
スパイ	-11.9363
暗く	-11.9363
▁あー	-11.9365
含み	-11.9365
玩	-11.9368
ミル	-11.9369
open	-11.937
変革	-11.9371
鳴り	-11.9371
いらしい	-11.9371
AM	-11.9373
▁Roman	-11.9374
mask	-11.9374
▁fundamental	-11.9375
▁di	-11.9377
一向	-11.9377
パンダ	-11.9379
はないです	-11.9379
ヲタ	-11.9381
->	-11.9384
so	-11.9384
可愛らし	-11.9385
ドー	-11.9386
原爆	-11.9387
▁act	-11.9387
▁La	-11.9389
らなくても	-11.9392
大島	-11.9392
▁Abstract	-11.9393
フラット	-11.9393
▁core	-11.9394
ありますよ	-11.9395
呼べ	-11.9395
▁Mar	-11.9397
恵み	-11.9398
target	-11.9401
mer	-11.9401
片づけ	-11.9403
なのではない	-11.9403
図書	-11.9406
優良	-11.9407
BB	-11.9407
▁Note	-11.9408
キック	-11.9408
なのかも	-11.941
貨物	-11.941
伏せ	-11.9414
▁dis	-11.9414
するんだ	-11.9414
崖	-11.9417
♪」	-11.9418
あがる	-11.9418
▁goal	-11.9424
▁reduction	-11.9425
ぶと	-11.9425
MA	-11.9429
細く	-11.943
ダル	-11.9433
松井	-11.9435
ロケット	-11.9435
▁online	-11.944
▁African	-11.9445
くなること	-11.9452
▁remove	-11.9455
求人	-11.9455
鯛	-11.9459
振り向	-11.9461
。※	-11.9461
ジョージ	-11.9469
いなくて	-11.947
','	-11.947
おせち	-11.9471
高等学校	-11.9472
フライト	-11.9473
飲み込	-11.9475
ならん	-11.9475
何気な	-11.9475
子孫	-11.9479
!"	-11.9482
▁suggested	-11.9485
カタログ	-11.9486
いつから	-11.9487
]]	-11.9494
wrote	-11.9496
▁var	-11.9498
RPG	-11.9498
ワイ	-11.95
おうか	-11.95
プレゼン	-11.95
▁intervention	-11.9502
▁proportion	-11.9503
凌	-11.9504
キャッチ	-11.9506
くんと	-11.9507
ii	-11.9507
敗れ	-11.9508
▁web	-11.9509
るかと	-11.9511
所在	-11.9513
模型	-11.9513
いやぁ	-11.9514
ゞ	-11.9514
▁themselve	-11.9518
▁mouse	-11.9519
税理士	-11.9522
貧し	-11.9522
公益	-11.9524
マレーシア	-11.9526
ないわ	-11.9526
ちゃいます	-11.9526
たりすると	-11.9527
デパート	-11.9527
▁blue	-11.953
出資	-11.9531
▁rights	-11.9532
PA	-11.9532
楽天	-11.9536
さんにお	-11.9537
浄化	-11.9537
begin	-11.9538
シリア	-11.9539
酔い	-11.9539
セブン	-11.954
GM	-11.954
准	-11.954
打ち出	-11.9542
ってると	-11.9543
高田	-11.9546
腫瘍	-11.9548
少なか	-11.9554
据え	-11.9555
バーベキュー	-11.9555
駆けつけ	-11.9555
▁detected	-11.9558
ステーション	-11.9561
▁names	-11.9561
ついてい	-11.9563
ヴァン	-11.9563
ビビ	-11.9567
ions	-11.9571
柔道	-11.9573
iPad	-11.9573
艦隊	-11.9573
▁animal	-11.9574
はきっと	-11.9574
コル	-11.9575
沸	-11.9577
▁京都	-11.9577
CEO	-11.9579
パンク	-11.9579
るんですけど	-11.9579
並行	-11.958
踏ん	-11.958
依然	-11.958
をしてもら	-11.958
腎	-11.9581
Model	-11.9582
爵	-11.9583
▁progress	-11.9583
▁sound	-11.9584
劇団	-11.9587
抜か	-11.9589
漬	-11.959
▁PCR	-11.9592
ソニー	-11.9593
▁International	-11.9593
ゴールデンウィーク	-11.9596
▁perspective	-11.9596
おろし	-11.9597
ゾンビ	-11.9597
form	-11.9599
▁medium	-11.9599
ステータス	-11.96
ないことも	-11.96
▁diet	-11.9601
My	-11.9603
使い分け	-11.9604
掴み	-11.9605
▁tool	-11.9605
wise	-11.9607
ろよ	-11.9607
つて	-11.9607
▁layer	-11.9609
咲かせ	-11.961
▁Introduction	-11.9611
▁vs	-11.9614
傷つ	-11.9615
▁segment	-11.9616
複合	-11.9617
主観	-11.9619
掘り	-11.9621
膳	-11.9625
延ば	-11.9628
▁plan	-11.9629
しませんか	-11.9631
▁Me	-11.9632
▁China	-11.9632
エー	-11.9633
オチ	-11.9633
▁mutant	-11.9634
predicted	-11.9635
▁objective	-11.9635
▁West	-11.9637
頁	-11.9641
ないだろ	-11.9644
ジャー	-11.9644
千人	-11.9645
西武	-11.9646
水泳	-11.9647
薔薇	-11.9649
▁args	-11.965
なったので	-11.9654
theta	-11.9655
▁PC	-11.9657
▁exhibit	-11.966
日本海	-11.9664
引き寄せ	-11.9664
。<	-11.9665
root	-11.9666
日和	-11.9666
スライド	-11.9667
青木	-11.9669
ファンド	-11.9669
ハリウッド	-11.9671
▁doing	-11.9672
▁held	-11.9674
ウェア	-11.9676
葵	-11.9679
打ち込	-11.9679
手持ち	-11.9682
web	-11.9684
言い出	-11.9685
海賊	-11.9685
▁tell	-11.9688
のかなぁ	-11.9688
だぜ	-11.969
▁来年	-11.9693
仕込	-11.9693
スカイ	-11.9695
GT	-11.9696
航空機	-11.9696
まみれ	-11.9699
小売	-11.9699
無人	-11.97
セクシー	-11.9701
ビート	-11.9701
っただけ	-11.9703
▁channel	-11.9704
のひら	-11.9705
▁demonstrat	-11.9706
んだもの	-11.9706
ないわけ	-11.9707
▁responsibl	-11.9709
朝日新聞	-11.9709
▁denote	-11.9713
妨	-11.9714
っていって	-11.9715
▁electron	-11.9716
洪	-11.9716
成り	-11.9717
ちょうどいい	-11.9718
奨	-11.9719
篤	-11.972
ティア	-11.9722
プル	-11.9723
▁pd	-11.9723
ーン	-11.9724
大野	-11.9725
死な	-11.9726
取り巻	-11.9727
紳士	-11.9728
sh	-11.9729
チベット	-11.973
ユーザ	-11.9732
ウル	-11.9733
互	-11.9734
メロディ	-11.9735
見分け	-11.9736
ウォーター	-11.9736
小倉	-11.9738
col	-11.9738
照ら	-11.9741
持ち歩	-11.9741
みず	-11.9744
みち	-11.9746
▁Imagine	-11.9747
▁member	-11.9748
▁requirement	-11.9748
になってしまって	-11.9751
SIM	-11.9756
シンボル	-11.9758
醜	-11.9758
ツーリング	-11.9758
チリ	-11.9758
んじゃない	-11.9758
▁黒	-11.976
▁---	-11.976
ab	-11.976
悼	-11.9762
駄	-11.9762
塵	-11.9765
しばし	-11.9766
因み	-11.9769
▁serve	-11.9771
取組	-11.9772
▁wide	-11.9774
▁なんと	-11.9777
▁virus	-11.9778
ライス	-11.9779
▁partial	-11.978
キュ	-11.9781
えらい	-11.9781
▁actual	-11.9781
AKB	-11.9783
大河	-11.9783
▁cycle	-11.9784
上がっ	-11.9785
▁price	-11.9788
やってい	-11.9789
アキ	-11.9796
▁trade	-11.9797
奨学	-11.9798
キャプテン	-11.9799
になりません	-11.9802
肘	-11.9803
▁fit	-11.9803
彫り	-11.9804
jp	-11.9805
▁broad	-11.9807
わくわく	-11.9807
▁("	-11.9811
モーニング	-11.9811
▁query	-11.9814
愚か	-11.9814
曇	-11.9815
じゃありません	-11.9816
client	-11.9817
供養	-11.9818
ズボン	-11.9819
オリ	-11.9819
水戸	-11.9819
こみ	-11.982
bo	-11.9822
りゃ	-11.9824
request	-11.9824
ref	-11.9827
借り入れ	-11.9829
候補者	-11.9829
謳	-11.9829
オーケストラ	-11.983
燃や	-11.9832
▁chemical	-11.9832
▁running	-11.9833
迄	-11.9834
▁Also	-11.9834
ランダム	-11.9835
レバレッジ	-11.9835
浮上	-11.9837
生姜	-11.9839
市立	-11.984
ふたつ	-11.984
ソー	-11.9841
▁math	-11.9842
▁poor	-11.9847
つくづく	-11.985
▁window	-11.985
有り難	-11.9851
しみ	-11.9851
煮込	-11.9851
▁approache	-11.9852
DC	-11.9852
持ち出	-11.9854
呼び出	-11.9855
ふつう	-11.9858
ニート	-11.9858
RO	-11.9862
そうだし	-11.9865
▁band	-11.9869
グリ	-11.9871
▁advantage	-11.9873
妨げ	-11.9874
しなく	-11.9874
AL	-11.9875
tag	-11.9875
林道	-11.9876
飛ばし	-11.9877
更年	-11.9877
Lv	-11.9881
▁users	-11.9883
バリエーション	-11.9884
▁differ	-11.9884
ちゅ	-11.9884
ディナー	-11.9886
represented	-11.9889
アマ	-11.989
熱帯	-11.9891
まさし	-11.9891
▁City	-11.9892
ケータイ	-11.9892
tr	-11.9893
～』	-11.9893
辛く	-11.9894
プレーヤー	-11.9896
横浜市	-11.9896
リフレッシュ	-11.9899
紡	-11.9899
摯	-11.9899
ムラ	-11.9906
▁Black	-11.9906
素早く	-11.9907
スカ	-11.9908
フライパン	-11.9908
FM	-11.9908
最上	-11.9909
ピンチ	-11.9909
小松	-11.9909
おいしかった	-11.991
瞭	-11.991
ウォン	-11.9911
古墳	-11.9911
するようにな	-11.9912
ize	-11.9914
火山	-11.9918
ないぞ	-11.9922
▁何故	-11.9922
▁came	-11.9924
馬場	-11.9924
▁regulation	-11.9925
▁こう	-11.9925
奉仕	-11.993
なかったと	-11.9933
衡	-11.9937
うれしいです	-11.9938
ストリート	-11.9938
▁⇒	-11.9939
ter	-11.9941
III	-11.9942
売り切れ	-11.9943
▁researcher	-11.9945
)^	-11.9945
すん	-11.9947
mu	-11.9948
)[	-11.9948
▁achieve	-11.9951
フィット	-11.9952
▁continued	-11.9953
▁choose	-11.9955
御座	-11.9959
ゆかり	-11.9961
ポチ	-11.9965
共産	-11.9966
コロ	-11.9967
red	-11.9968
▁characters	-11.9968
ネーム	-11.9969
▁posted	-11.997
何だ	-11.9971
きめ	-11.9972
コスプレ	-11.9973
ium	-11.9974
ライセンス	-11.9975
マック	-11.9975
▁Body	-11.9977
▁transcription	-11.9978
▁living	-11.9978
指針	-11.998
▁古	-11.998
ハンバーグ	-11.9982
ロウ	-11.9983
あつ	-11.9986
辰	-11.9988
半数	-11.9988
島根	-11.9989
▁probab	-11.9991
だったよう	-11.9996
段々	-11.9997
▁drug	-11.9998
地道	-11.9999
ja	-12
エンド	-12
ga	-12.0001
HD	-12.0001
Time	-12.0004
井戸	-12.0007
▁scenario	-12.0007
▁travel	-12.0008
ところがある	-12.001
▁introduc	-12.001
ワシントン	-12.0011
JA	-12.0012
▁mg	-12.0015
搭	-12.0018
いいんじゃない	-12.0018
▁settings	-12.002
▁▽	-12.0021
スン	-12.0022
ることはありません	-12.0023
▁parallel	-12.0024
obj	-12.0026
渓	-12.0026
ってどんな	-12.0027
だめだ	-12.0029
東部	-12.0029
▁denominator	-12.0031
豪雨	-12.0036
炭水	-12.0038
▁沖縄	-12.004
▁extra	-12.0041
マイクロ	-12.0042
禍	-12.0042
▁foster	-12.0042
▁onto	-12.0048
俳句	-12.005
働きかけ	-12.0052
うとき	-12.0052
長距離	-12.0053
追い出	-12.0058
霞	-12.0058
ヘリ	-12.0059
mi	-12.0062
▁chosen	-12.0063
エス	-12.0066
▁Both	-12.0067
▁hospital	-12.0067
んばかり	-12.0067
ひら	-12.0068
織田	-12.0069
カルシウム	-12.007
▁まさか	-12.007
積み上げ	-12.0073
エンディング	-12.0074
なぞ	-12.0075
アタシ	-12.0076
南米	-12.0077
ni	-12.0078
nt	-12.0078
▁promote	-12.0079
▁survey	-12.008
ぽん	-12.008
ギャンブル	-12.0081
しみじみ	-12.0082
アルミ	-12.0084
ラフ	-12.0085
▁cluster	-12.0085
血の	-12.0086
本文	-12.0086
▁master	-12.0087
)*	-12.0089
淵	-12.0089
アメリカン	-12.0089
▁combined	-12.0091
伝承	-12.0094
ってなかった	-12.0096
不適	-12.0097
ット	-12.0097
ないかも	-12.0097
カール	-12.0099
}$$	-12.0099
▁tests	-12.0101
▁generation	-12.0103
分裂	-12.0104
橘	-12.0105
ささ	-12.0107
パル	-12.0111
RE	-12.0111
current	-12.0112
椿	-12.0113
▁numerous	-12.0117
Chinese	-12.0117
住居	-12.0117
▁job	-12.0118
iter	-12.012
▁games	-12.012
わりに	-12.0121
曜	-12.0121
capacity	-12.0121
スク	-12.0123
にかける	-12.0123
Android	-12.0123
▁alignment	-12.0123
こともあった	-12.0124
コツコツ	-12.0125
ING	-12.013
樹木	-12.0132
▁北海道	-12.0132
高等	-12.0134
善し	-12.0138
心も	-12.0138
のおかげ	-12.014
ってしまうこと	-12.0143
▁Air	-12.0146
HDD	-12.0147
カバン	-12.0147
ジェル	-12.0148
オナニー	-12.0154
固有	-12.0154
いるんだ	-12.0155
▁child	-12.0155
▁sign	-12.0157
接し	-12.0158
おもしろ	-12.0161
▁live	-12.0161
ブーツ	-12.0162
バスケ	-12.0162
地理	-12.0164
ase	-12.0166
▁左	-12.0166
ジェット	-12.0168
曹	-12.0171
但し	-12.0174
▁amino	-12.0175
タマ	-12.0178
ワシ	-12.018
ないのでは	-12.0183
▁app	-12.0185
チュ	-12.0185
品川	-12.0185
マガジン	-12.0186
loc	-12.0187
になっているので	-12.0187
▁frame	-12.0189
あさ	-12.019
EL	-12.0191
いるか	-12.0192
したんだ	-12.0192
わけにはいかない	-12.0193
税込	-12.0193
ダッシュ	-12.0194
麓	-12.0199
ダイヤ	-12.02
たこ	-12.02
全日本	-12.02
ホー	-12.02
神宮	-12.02
▁Create	-12.0201
・・・・。	-12.0203
host	-12.0203
ペーパー	-12.0205
社会福祉	-12.0205
▁upper	-12.0206
帯び	-12.0206
うけ	-12.021
▁description	-12.0211
ぬか	-12.0213
▁island	-12.0213
▁Na	-12.0213
団地	-12.0214
立ち止ま	-12.0214
▁module	-12.0214
UI	-12.0216
ポンド	-12.0216
ol	-12.0218
サビ	-12.0219
▁TV	-12.0219
薪	-12.0219
福田	-12.0221
後退	-12.0225
るんだから	-12.0226
おっしゃ	-12.0227
EC	-12.0229
痛め	-12.023
den	-12.0232
いるのです	-12.0238
キツイ	-12.0239
みたいなこと	-12.024
もたらし	-12.0241
nn	-12.0241
んじゃないでしょうか	-12.0243
▁Health	-12.0245
▁send	-12.0248
有権	-12.0249
セミ	-12.025
閲	-12.025
▁·	-12.0251
DE	-12.0253
いものだ	-12.0253
les	-12.0253
喘	-12.0255
▁possibilit	-12.0255
▁THE	-12.0256
ショ	-12.0257
福井	-12.0258
蟹	-12.0259
▁behind	-12.0265
紅白	-12.0268
▁おそらく	-12.0269
中高年	-12.027
▁Go	-12.027
野村	-12.0271
よくわか	-12.0273
んだよな	-12.0273
ard	-12.0274
小池	-12.0276
鍛	-12.0277
クリス	-12.0279
スワップ	-12.0279
ないよね	-12.0281
GP	-12.0281
▁雨	-12.0282
なめ	-12.0283
中世	-12.0286
▁atom	-12.0287
産まれ	-12.0288
見積	-12.0292
本土	-12.0294
リンパ	-12.0298
メカニズム	-12.0299
ってるよ	-12.03
ler	-12.0301
▁Before	-12.0301
掛	-12.0301
惣	-12.0303
拾い	-12.0303
看	-12.0304
▁<<	-12.0305
だけじゃない	-12.0307
にはま	-12.0307
水族館	-12.0307
たしか	-12.031
石井	-12.0312
こともなく	-12.0312
MT	-12.0313
同人	-12.0313
つめ	-12.0318
表れ	-12.0319
だく	-12.0321
ザー	-12.0322
幾ら	-12.0324
危惧	-12.0327
ゴールデン	-12.0328
火事	-12.0329
action	-12.033
に関し	-12.0331
日記	-12.0332
px	-12.0333
▁financial	-12.0333
詰め込	-12.0336
田村	-12.0339
にならないように	-12.034
▁improvement	-12.0341
じゅう	-12.0343
▁Google	-12.0344
▁story	-12.0345
January	-12.0347
▁She	-12.0348
▁transform	-12.035
かったのか	-12.0352
▁environmental	-12.0356
熟成	-12.0357
細工	-12.0357
捨	-12.0359
TA	-12.0359
追い詰め	-12.036
▁女	-12.036
てほしいです	-12.0364
どうだ	-12.0364
郷土	-12.0368
っているだけ	-12.0368
▁false	-12.0373
changed	-12.0374
っていたのだ	-12.0375
定的	-12.0376
▁enzyme	-12.0376
やってます	-12.0376
胞	-12.0378
物資	-12.0379
友好	-12.0383
坐	-12.0383
漠然	-12.0385
入れ替わ	-12.0387
そばに	-12.0388
▁optimal	-12.0389
日産	-12.0392
▁balance	-12.0392
▁money	-12.0392
▁extend	-12.0395
▁platform	-12.0397
トラウマ	-12.0397
スポ	-12.0398
ニコ	-12.0401
乗り切	-12.0401
あるかもしれません	-12.0402
▁bring	-12.0402
GDP	-12.0406
オーディション	-12.0408
チェンジ	-12.0408
斎藤	-12.0408
ドロップ	-12.0409
滅多	-12.041
保ち	-12.0412
Reals	-12.0414
ようがない	-12.0415
敢	-12.0416
LE	-12.0416
api	-12.0416
▁conflict	-12.0416
▁どの	-12.0417
▁bar	-12.0417
しつけ	-12.042
さく	-12.0423
バンク	-12.0423
琉球	-12.0424
ダラダラ	-12.0424
等し	-12.0426
たかったの	-12.0426
フェリー	-12.0431
which	-12.0432
カスタム	-12.0433
叔父	-12.0436
禁じ	-12.0436
ite	-12.0437
近辺	-12.0438
▁screen	-12.0439
るんですか	-12.044
▁absolute	-12.0443
なことで	-12.0443
扶	-12.0444
▁moment	-12.0444
バッチリ	-12.0444
姫路	-12.0445
ってきたの	-12.0446
しょうが	-12.0447
▁alone	-12.0448
▁List	-12.0451
ごたえ	-12.046
老後	-12.0462
▁accuracy	-12.0463
内外	-12.0464
▁Man	-12.0465
そっくり	-12.0466
▁strength	-12.0466
借	-12.0467
ang	-12.0468
少量	-12.0469
ねこ	-12.0469
▁enter	-12.0471
OFF	-12.0472
不動	-12.0472
ラインナップ	-12.0473
いほう	-12.0473
ルナ	-12.0474
ru	-12.0475
神田	-12.0476
専念	-12.048
球場	-12.0482
ip	-12.0482
▁plann	-12.0485
伊達	-12.0489
▁month	-12.0489
ツー	-12.0489
上田	-12.049
明かり	-12.0492
▁easy	-12.0492
はずれ	-12.0492
法令	-12.0493
シミュレーション	-12.0495
der	-12.0496
のかわからない	-12.0497
ベルリン	-12.0497
ったらしい	-12.0499
ちょっぴり	-12.0501
逃げ出	-12.0503
ック	-12.0503
中川	-12.0504
▁stay	-12.0504
cy	-12.0505
楽園	-12.0505
るわけで	-12.0505
▁positions	-12.0506
クー	-12.0511
骸	-12.0513
ミステリー	-12.0514
ストア	-12.0515
いいんです	-12.0516
ギャル	-12.0517
ST	-12.0517
吐き出	-12.0519
火の	-12.0522
true	-12.0525
五郎	-12.0528
ひっくり返	-12.053
▁mRNA	-12.053
箋	-12.053
んか	-12.0531
cdot	-12.0532
ヨシ	-12.0536
花嫁	-12.0536
▁organism	-12.0536
カギ	-12.0537
なるような	-12.0538
▁perfect	-12.0538
おこ	-12.0538
かったんです	-12.0539
キャップ	-12.0539
solutions	-12.054
してると	-12.0542
送り出	-12.0542
意気込	-12.0545
石原	-12.0546
損な	-12.0547
立ち向か	-12.0547
マックス	-12.0549
mode	-12.055
気圧	-12.055
人参	-12.0556
打て	-12.0557
いるのは	-12.0558
付加	-12.0558
年月	-12.0558
lambda	-12.0561
スカウト	-12.0562
わけではないので	-12.0563
アンタ	-12.0566
▁父	-12.0569
町田	-12.0571
▁Set	-12.0571
▁Ju	-12.0572
くだけ	-12.0572
いまさら	-12.0573
勿体	-12.0573
もわか	-12.0574
会津	-12.0574
アッ	-12.0574
▁enhance	-12.0577
チビ	-12.0579
絞り	-12.0582
フリーランス	-12.0584
ak	-12.0584
いんだ	-12.0585
ダンサー	-12.0587
軍人	-12.0588
HIV	-12.0589
たいので	-12.059
ネス	-12.0591
窯	-12.0591
聡	-12.0591
レコーディング	-12.0591
オオ	-12.0592
出世	-12.0593
ってるし	-12.0594
シス	-12.0597
タスク	-12.0597
▁filter	-12.06
▁underlying	-12.0604
グランプリ	-12.0605
義理	-12.0606
ませんから	-12.0607
石田	-12.0608
浦和	-12.0608
ディー	-12.0611
スタンプ	-12.0612
ウェイ	-12.0612
っぱら	-12.0615
カウンセラー	-12.062
イルカ	-12.0621
▁妊	-12.0622
Path	-12.0622
たくなった	-12.0622
昆虫	-12.0624
らないという	-12.0625
福山	-12.0626
笠	-12.0627
ってのが	-12.0627
とらわれ	-12.0627
がいいです	-12.0628
致命	-12.0628
かっ	-12.0628
お年	-12.0632
がんばれ	-12.0632
score	-12.0633
アトピー	-12.0634
▁transformation	-12.0634
繋げ	-12.0635
にしたら	-12.0645
彷	-12.0645
いれ	-12.0647
途切れ	-12.0648
ノイズ	-12.0649
紺	-12.0649
▁peptide	-12.0649
function	-12.065
played	-12.065
カワイイ	-12.065
▁strategy	-12.0652
さい	-12.0653
藤田	-12.0653
の里	-12.0656
らないで	-12.066
かったよ	-12.0662
▁scientific	-12.0663
恨み	-12.0664
ネズミ	-12.0665
っていうのが	-12.0665
layers	-12.0669
娯	-12.067
Text	-12.0672
轄	-12.0678
▁我	-12.068
ちゃんとした	-12.0681
ner	-12.0681
死ね	-12.0682
ひとまず	-12.0682
▁Christian	-12.0683
アジ	-12.0684
んぱく	-12.0685
批評	-12.0686
契	-12.0688
ひいて	-12.0689
クッション	-12.069
筋力	-12.0693
fold	-12.0693
京都市	-12.0694
カナ	-12.0694
めちゃ	-12.0696
▁仮	-12.0697
鳥居	-12.0698
たど	-12.07
ふわふわ	-12.0703
レーベル	-12.0704
AA	-12.0705
木材	-12.0706
艇	-12.0707
くなってきて	-12.0709
無数	-12.071
喝	-12.0711
眠気	-12.0712
輔	-12.0716
シチュエーション	-12.0716
▁correspond	-12.0716
民衆	-12.0719
脆	-12.072
こないだ	-12.0722
キノコ	-12.0722
一匹	-12.0723
▁loop	-12.0728
錦	-12.0729
GS	-12.0729
▁sufficient	-12.073
コンクール	-12.0731
txt	-12.0731
まとまっ	-12.0732
this	-12.0733
▁=>	-12.0734
年中	-12.0735
≫	-12.0736
ていうか	-12.0736
つる	-12.0738
けた	-12.0739
▁August	-12.0739
ster	-12.074
排水	-12.0741
放課	-12.0741
▁Li	-12.0741
珈琲	-12.0741
そんなこんなで	-12.0744
▁shared	-12.0745
いぞ	-12.0746
近寄	-12.0747
▁翌	-12.0748
ヤマト	-12.0749
ビット	-12.0749
▁agreement	-12.0754
▁Western	-12.0755
執着	-12.0757
スキ	-12.0759
フン	-12.0761
▁各	-12.0763
陸軍	-12.0764
ぐら	-12.0764
▁dict	-12.0765
楼	-12.0766
ずる	-12.077
カリ	-12.077
▁library	-12.0772
フォト	-12.0772
るというの	-12.0775
母子	-12.0776
grid	-12.078
ブロガー	-12.0788
とどめ	-12.0789
SR	-12.079
俯	-12.0791
▁slope	-12.0793
煩	-12.0793
すげ	-12.0794
一人暮	-12.0794
謂	-12.0795
見下ろ	-12.0798
松田	-12.0801
なんだよね	-12.0802
LAN	-12.0803
アロマ	-12.0803
ハンター	-12.0803
斉藤	-12.0805
▁la	-12.0806
折り返	-12.0807
▁compound	-12.0808
ブルース	-12.081
カリキュラム	-12.0812
▁notice	-12.0815
レット	-12.0815
ハラ	-12.0816
way	-12.0816
industry	-12.0816
てしまったり	-12.0819
▁colon	-12.0819
積立	-12.082
アド	-12.082
クリエイター	-12.0821
教科	-12.0823
CPU	-12.0823
セント	-12.0825
憑	-12.0826
▁突然	-12.0827
▁Or	-12.083
**:	-12.083
▁surrounding	-12.0835
モンゴル	-12.0837
郵政	-12.0838
十字	-12.0839
岬	-12.0842
あた	-12.0842
んなら	-12.0842
▁origin	-12.0844
をやった	-12.0846
▁Church	-12.0846
▁AM	-12.0848
low	-12.0848
USB	-12.085
フォン	-12.0853
テンプレート	-12.0855
湿気	-12.0855
mathbb	-12.0855
▁evaluation	-12.0856
sa	-12.0857
がひどく	-12.0858
王様	-12.0859
chi	-12.0859
ール	-12.0859
▁wall	-12.086
キムチ	-12.0861
危う	-12.0864
鎧	-12.0867
▁Bo	-12.087
狐	-12.0871
ideas	-12.0872
むような	-12.0873
十三	-12.0876
▁Un	-12.0876
かたち	-12.0877
ted	-12.0877
同性	-12.0878
ki	-12.0878
ということにな	-12.0879
Field	-12.088
広範	-12.088
di	-12.0883
つた	-12.0884
閥	-12.0884
すっごく	-12.0884
ウサギ	-12.0885
ゆみ	-12.0888
淡路	-12.0891
"),	-12.0891
操縦	-12.0895
垣間見	-12.0895
TO	-12.0895
ダイレクト	-12.0896
SM	-12.0898
▁highlight	-12.0898
ATM	-12.0899
大物	-12.0901
酒造	-12.0904
▁regulator	-12.0905
るのではないか	-12.0906
とけ	-12.091
近畿	-12.091
ought	-12.0912
トッピング	-12.0915
ヘン	-12.0916
り着	-12.0919
port	-12.092
▁reason	-12.0923
りや	-12.0928
最前	-12.0934
いたのだ	-12.0935
,"	-12.0936
ノーマル	-12.0936
銀河	-12.0937
ヒゲ	-12.0938
mon	-12.0938
PM	-12.0939
スプレッド	-12.0939
▁Union	-12.0941
method	-12.0943
SL	-12.0944
済ま	-12.0946
禄	-12.0947
京都府	-12.095
尖	-12.0952
湧き	-12.0952
腹の	-12.0953
バリバリ	-12.0956
▁hypothesis	-12.0956
アタック	-12.0959
トル	-12.096
切っ	-12.096
びたび	-12.0961
▁disorder	-12.0961
おっと	-12.0962
呂	-12.0963
取り寄せ	-12.0964
成し遂げ	-12.0965
北の	-12.0966
▁さっき	-12.0969
新生	-12.0971
ベタ	-12.0972
野田	-12.0974
になるかもしれません	-12.0975
グラウンド	-12.0978
墓地	-12.0979
ng	-12.0979
▁reading	-12.0979
まじめ	-12.0981
走れ	-12.0981
▁investigation	-12.0982
ラック	-12.0982
▁skin	-12.0983
繰り出	-12.0983
▁analyze	-12.0986
浴衣	-12.0988
zeros	-12.0989
▁costs	-12.0992
▁一番	-12.0992
レバー	-12.0994
ative	-12.0994
▁severe	-12.0996
去り	-12.0997
とことん	-12.0997
ってやる	-12.0998
クビ	-12.0998
れん	-12.1
デブ	-12.1
あったの	-12.1003
さりげ	-12.1004
マキ	-12.1007
浄	-12.1008
CH	-12.101
▁▲	-12.1011
断然	-12.1013
ana	-12.1014
たまりません	-12.1016
▁['	-12.1016
一行	-12.1019
▁Time	-12.1021
おうち	-12.1022
論じ	-12.1024
▁stop	-12.1024
けい	-12.1024
la	-12.1026
イラ	-12.1027
蔑	-12.1029
同窓	-12.103
▁December	-12.1035
▁```	-12.1037
飴	-12.1038
見慣れ	-12.104
はいかない	-12.1041
インフレ	-12.1041
ists	-12.1042
▁video	-12.1047
back	-12.1048
道中	-12.1049
さまが	-12.1049
ベリー	-12.105
重み	-12.1054
クルーズ	-12.1061
コスパ	-12.1061
紛れ	-12.1065
▁percentage	-12.1066
▁途	-12.1068
hat	-12.1069
▁Keep	-12.1071
▁^	-12.1071
ME	-12.1073
AR	-12.1074
風土	-12.1074
▁evolution	-12.1076
アクセント	-12.1077
コンテナ	-12.1077
インデックス	-12.1077
摩	-12.1078
▁nuclear	-12.1079
▁mind	-12.1079
理科	-12.108
ガッカリ	-12.1081
王道	-12.1081
▁System	-12.1082
地内	-12.1083
▁neuron	-12.1083
むら	-12.1085
こだわる	-12.1087
−	-12.1088
り込	-12.1089
▁criteria	-12.109
国防	-12.1098
▁Sa	-12.1099
諏訪	-12.1102
大将	-12.1103
▁March	-12.1103
煙草	-12.1103
GI	-12.1104
顔面	-12.1104
▁walk	-12.1105
なれ	-12.1107
▁choice	-12.1108
▁views	-12.1109
▁やっぱ	-12.1113
POP	-12.1116
▁processing	-12.1119
ライオン	-12.1119
▁$(	-12.112
▁既	-12.112
NTT	-12.1121
▁extreme	-12.1122
▁原	-12.1122
▁神	-12.1122
彰	-12.1122
▁null	-12.1122
filter	-12.1123
だっけ	-12.1125
コンタクト	-12.1125
▁東	-12.1127
ウッド	-12.1128
ないんですが	-12.1129
▁safe	-12.1129
ial	-12.113
▁whos	-12.113
▁lung	-12.1132
▁adopt	-12.1133
もあれ	-12.1133
スプーン	-12.1133
dim	-12.1135
地蔵	-12.1136
js	-12.1138
PK	-12.1138
わがまま	-12.1139
気持ち良	-12.1139
distributed	-12.1139
黒田	-12.1139
▁align	-12.1139
てるんだ	-12.1139
デスク	-12.1139
佐野	-12.1147
っているわけ	-12.1147
▁God	-12.1148
copy	-12.1148
referred	-12.115
裾	-12.115
▁majority	-12.1152
別々	-12.1153
さそうです	-12.1155
コンプレックス	-12.1155
なったら	-12.1155
痺	-12.1156
引き込	-12.1157
pa	-12.1157
points	-12.1159
たるみ	-12.116
マグロ	-12.1162
メロン	-12.1162
ゝ	-12.1162
ボロ	-12.1163
しっくり	-12.1163
バンコク	-12.1164
マネ	-12.1165
噛み	-12.1165
カミ	-12.1166
▁option	-12.1168
ised	-12.1168
▁lost	-12.1168
東海道	-12.1169
New	-12.117
列島	-12.1171
映し出	-12.1171
ニュージーランド	-12.1172
ドコモ	-12.1174
タップ	-12.1176
▁induce	-12.1177
▁instrument	-12.1179
cal	-12.118
苛	-12.118
▁link	-12.1181
men	-12.1182
くると	-12.1183
浮かび	-12.1184
いなし	-12.1185
虜	-12.1185
▁server	-12.1185
強ま	-12.119
▁Test	-12.119
▁moving	-12.1191
fit	-12.1192
▁午前	-12.1193
Set	-12.1193
梅田	-12.1194
預	-12.1196
▁Septemb	-12.1196
伝わり	-12.1197
ご馳走	-12.1198
あいだ	-12.1202
ているんです	-12.1204
アクセル	-12.1205
ディーラー	-12.1208
アメ	-12.1208
▁draw	-12.1211
オーディオ	-12.1213
アンド	-12.1213
且	-12.122
La	-12.122
学級	-12.1221
......!	-12.1224
クズ	-12.1226
▁construction	-12.1226
着せ	-12.1229
ないらしい	-12.123
dt	-12.123
TS	-12.1231
わた	-12.1233
湘南	-12.1234
▁cv	-12.1235
いらっしゃいました	-12.1235
神楽	-12.1236
めんどくさい	-12.1236
垢	-12.1237
姑	-12.1238
唸	-12.1238
・・・!	-12.1238
のぼり	-12.124
ecause	-12.1241
』、『	-12.1242
▁attribute	-12.1245
染み	-12.1245
つなぎ	-12.1247
フォント	-12.1247
ばん	-12.1249
カルチャー	-12.1249
かったのに	-12.125
払わ	-12.1251
▁ball	-12.1253
カエル	-12.1255
コイツ	-12.1258
ウィルス	-12.1258
プー	-12.1258
醍醐	-12.1259
科学技術	-12.126
sample	-12.1261
無用	-12.1262
ell	-12.1263
ではありませんか	-12.1263
ガチャ	-12.1264
はいけません	-12.1266
山道	-12.1268
昆布	-12.1268
ぎりぎり	-12.1269
っておい	-12.1269
っちゃって	-12.1271
なさそうです	-12.1271
SO	-12.1272
こともありました	-12.1272
四月	-12.1272
つまみ	-12.1272
おしまい	-12.1273
models	-12.1273
▁全国	-12.1275
農村	-12.1276
ユキ	-12.1276
▁昭和	-12.1276
utils	-12.1277
ダイビング	-12.1278
バット	-12.1278
忘年	-12.1278
▁house	-12.1279
じゃないから	-12.1281
斑	-12.1282
第四	-12.1285
pred	-12.1286
帽	-12.1287
カラフル	-12.1288
▁大人	-12.1289
ニンニク	-12.1291
ポルトガル	-12.1291
▁significance	-12.1291
▁buffer	-12.1291
空け	-12.1293
べし	-12.1294
▁candidate	-12.1294
▁journey	-12.1295
env	-12.1297
ゴマ	-12.1299
▁三	-12.13
vol	-12.1302
)):	-12.1304
ニャ	-12.1305
いいんだ	-12.1306
ウリ	-12.1306
食糧	-12.1307
ロイヤル	-12.1308
▁France	-12.1309
ba	-12.131
跳ね	-12.1312
▁III	-12.1315
AP	-12.1317
ふん	-12.1318
区分	-12.1318
ブス	-12.1319
ハズ	-12.132
長寿	-12.1323
羽田	-12.1323
かぎり	-12.1323
平凡	-12.1324
▁labels	-12.1325
一撃	-12.1328
うところ	-12.133
dot	-12.1331
吸い込	-12.1333
▁trial	-12.1334
ほん	-12.1336
韻	-12.1339
なっ	-12.1345
▁operation	-12.1347
宙	-12.1348
うらやましい	-12.135
▁え	-12.1351
カレ	-12.1351
ゼン	-12.1354
姦	-12.1357
▁parent	-12.1358
リレー	-12.136
萌	-12.1361
流行り	-12.1363
恥ずかしく	-12.1363
くり	-12.1363
見習	-12.1364
っていうの	-12.1364
いのも	-12.1366
東方	-12.1366
もらわ	-12.1368
けない	-12.1368
甚	-12.1369
▁transition	-12.1371
カジュアル	-12.1371
AGA	-12.1371
スリム	-12.1371
海水	-12.1372
いいですか	-12.1372
last	-12.1373
タブ	-12.1375
グロ	-12.1376
advanced	-12.1377
いそうです	-12.1379
▁enjoy	-12.1382
言い出し	-12.1382
こぼれ	-12.1383
おく	-12.1387
▁Africa	-12.1387
▁comprehensive	-12.1389
礼拝	-12.1389
ろうかと	-12.1389
▁猫	-12.139
▁improv	-12.1392
▁legal	-12.1392
コラボレーション	-12.1393
になってた	-12.1393
わかりませんが	-12.1395
board	-12.1397
たかも	-12.1398
やられ	-12.1398
うだけ	-12.14
ating	-12.1402
とおっしゃ	-12.1404
るうちに	-12.1404
キャッシュ	-12.1405
▁py	-12.1406
倶楽	-12.1407
一息	-12.1407
}^{	-12.1408
クリーン	-12.1408
▁assessment	-12.1413
▁select	-12.1413
騎	-12.1414
ーナ	-12.1416
▁seven	-12.1417
しわ	-12.1417
謡	-12.1418
block	-12.1421
ちら	-12.1421
ぼろ	-12.1423
appears	-12.1424
スリ	-12.1424
固く	-12.1426
▁assumption	-12.1429
腎臓	-12.1429
ap	-12.1429
じん	-12.1431
買い替え	-12.1431
じょう	-12.1431
▁love	-12.1432
▁errors	-12.1432
マインド	-12.1433
ふる	-12.1434
ジュン	-12.1435
イル	-12.1436
まくる	-12.1436
ウエスト	-12.1436
▁poly	-12.1437
走り回	-12.1438
▁framework	-12.1438
Returns	-12.1438
だらけの	-12.1438
那覇	-12.1438
レトロ	-12.1438
色素	-12.1442
store	-12.1442
close	-12.1444
四年	-12.1444
ちと	-12.1444
マクロ	-12.1445
▁records	-12.1449
がたくさんあ	-12.1449
修学	-12.145
たことも	-12.145
亡く	-12.1451
▁Car	-12.1451
▁fast	-12.1452
獅子	-12.1452
みたら	-12.1454
大谷	-12.1456
ブッシュ	-12.1456
▁Group	-12.1457
北九州	-12.1459
ったようです	-12.1459
病棟	-12.146
▁Sp	-12.146
モダン	-12.1461
刈り	-12.1462
らないから	-12.1462
うんです	-12.1462
てるけど	-12.1463
懲	-12.1465
甘味	-12.1466
つもの	-12.1466
思春	-12.1466
ブロ	-12.1466
グラフィック	-12.1466
ウマ	-12.1466
▁failure	-12.1467
ウェディングプラン	-12.1467
シャー	-12.1468
カラス	-12.1468
アドバイザー	-12.1469
あわて	-12.1472
CB	-12.1472
スイカ	-12.1472
てるし	-12.1474
おいで	-12.1478
まね	-12.1479
くなってくる	-12.1479
小山	-12.148
▁beginning	-12.1483
かゆ	-12.1483
ニン	-12.1484
弾け	-12.1485
麻薬	-12.1485
茶の	-12.1486
アルプス	-12.1487
引き下げ	-12.149
▁motion	-12.149
フィンランド	-12.1492
▁King	-12.1493
▁sea	-12.1493
転移	-12.1493
殴り	-12.1495
ぐるみ	-12.1496
ストーブ	-12.1496
団長	-12.1497
鴨	-12.1499
ron	-12.15
▁β	-12.15
BP	-12.1501
北条	-12.1503
盲	-12.1504
amp	-12.1504
▁carbon	-12.1505
太子	-12.1506
▁continuous	-12.1507
▁proper	-12.1507
▁dtype	-12.1508
▁edge	-12.151
マナ	-12.1513
延び	-12.1513
ボルト	-12.1513
精霊	-12.1516
オファー	-12.1516
単行	-12.1517
ネジ	-12.1518
解き	-12.152
奢	-12.1523
BA	-12.1525
ミドル	-12.1528
おもてなし	-12.1531
ke	-12.1533
むくみ	-12.1534
だけじゃ	-12.1534
マリー	-12.1535
の輪	-12.1535
しつこ	-12.1536
ルカ	-12.1536
car	-12.1536
▁big	-12.1538
照らし	-12.154
るんですが	-12.154
聴け	-12.1541
▁politician	-12.1542
ぐるぐる	-12.1542
手渡	-12.1542
パラメータ	-12.1544
MB	-12.1544
得な	-12.1546
ひし	-12.155
藤井	-12.155
ヤクザ	-12.1551
フレッシュ	-12.1552
移り	-12.1554
大久保	-12.1554
えもん	-12.1555
▁track	-12.1558
シンポジウム	-12.156
▁April	-12.156
四半	-12.156
なかったのに	-12.156
local	-12.1561
etc	-12.1561
かねて	-12.1562
パレード	-12.1564
▁cDNA	-12.1565
ハチ	-12.1565
女子大	-12.1566
▁protocol	-12.1568
▁Germany	-12.1568
ひっそり	-12.1569
おかしくな	-12.1569
市川	-12.1569
えぇ	-12.1569
EV	-12.1571
▁academic	-12.1572
applying	-12.1575
なんだろうな	-12.1576
キモ	-12.1577
▁ancient	-12.1578
百合	-12.1582
▁Make	-12.1584
▁someone	-12.1584
包み	-12.1585
]))	-12.1586
▁o	-12.1586
▁signals	-12.1588
]),	-12.1589
`*)	-12.1591
source	-12.1591
なんぞ	-12.1592
くまで	-12.1593
developing	-12.1595
ひょっとし	-12.1595
鯨	-12.1596
アウトドア	-12.1597
ポンプ	-12.1598
IE	-12.1599
モヤモヤ	-12.1601
▁どうして	-12.1601
忍者	-12.1602
▁participants	-12.1602
恨	-12.1602
CR	-12.1604
なされ	-12.1604
熊野	-12.1604
百貨店	-12.1605
レフ	-12.1606
むという	-12.1608
うんざり	-12.161
▁久々	-12.1611
▁wave	-12.1611
ネオ	-12.1612
になることも	-12.1613
バレー	-12.1615
▁powerful	-12.1616
widely	-12.1617
囁	-12.1619
うれしかった	-12.1619
▁bit	-12.162
気合い	-12.162
Get	-12.1622
捻	-12.1622
怯え	-12.1623
タイル	-12.1623
こっちに	-12.1625
▁supported	-12.1625
宛	-12.1627
TOEIC	-12.1628
コピペ	-12.1628
ius	-12.1628
乏し	-12.1629
馬車	-12.1632
締め切	-12.1632
仔	-12.1637
の申	-12.1641
烏	-12.1641
▁race	-12.1642
わらず	-12.1643
▁San	-12.1645
ロマン	-12.1647
mixed	-12.1651
巨乳	-12.1654
looking	-12.1654
てあげた	-12.1655
リットル	-12.1657
溜	-12.1658
▁メール	-12.1659
word	-12.166
▁communit	-12.166
▁encounter	-12.166
▁evaluate	-12.1661
どうなって	-12.1661
▁interpretation	-12.1663
エラ	-12.1663
▁あたし	-12.1663
がいました	-12.1663
equal	-12.1663
一夜	-12.1669
induc	-12.1669
▁desired	-12.1669
読み込	-12.167
溶か	-12.1671
鳩	-12.1671
にわか	-12.1671
どんだけ	-12.1673
薄れ	-12.1673
土砂	-12.1674
露天	-12.1676
▁England	-12.1678
ナル	-12.1679
▁hour	-12.1679
愛想	-12.1681
died	-12.1681
];	-12.1682
セレクト	-12.1683
リップ	-12.1684
法制	-12.1685
凄まじ	-12.1687
車体	-12.1688
鹿島	-12.1688
ごま	-12.169
加賀	-12.169
鳳	-12.1692
AB	-12.1692
推し	-12.1692
明白	-12.1694
▁Con	-12.1694
萩	-12.1694
隻	-12.1696
冷たく	-12.1698
▁花	-12.1703
口元	-12.1704
いいかも	-12.1705
▁IL	-12.1705
茸	-12.1706
クリエイティブ	-12.1706
▁detection	-12.1706
フー	-12.1707
の巣	-12.1708
梁	-12.1709
ユリ	-12.171
ボクシング	-12.171
GK	-12.1711
light	-12.1712
宇都宮	-12.1715
相応し	-12.1717
▁attack	-12.1718
宮本	-12.1718
いとこ	-12.172
担い	-12.1722
やけど	-12.1723
んでしょ	-12.1724
がたま	-12.1724
ナイス	-12.1725
gt	-12.1728
▁identical	-12.1729
数少な	-12.1729
ユウ	-12.173
日向	-12.1731
しつこく	-12.1732
▁eight	-12.1733
▁rise	-12.1733
軌	-12.1733
裏切り	-12.1733
大げ	-12.1734
▁preference	-12.1734
次官	-12.1738
暁	-12.1738
描け	-12.1741
specified	-12.1741
ツリー	-12.1742
ミント	-12.1742
だけなの	-12.1742
オーガニック	-12.1743
黒髪	-12.1744
そろえ	-12.1744
閉じ込め	-12.1744
▁chromosome	-12.1744
メーター	-12.1745
▁cellular	-12.1746
▁connection	-12.1746
すず	-12.1747
奔	-12.1747
鞄	-12.1747
▁http	-12.1747
ポーランド	-12.1752
▁eventual	-12.1752
▁East	-12.1754
賄	-12.1754
▁vertical	-12.1759
▁introduce	-12.1762
宝物	-12.1762
▁repeat	-12.1762
▁article	-12.1764
▁networks	-12.1765
▁isolate	-12.1766
▁meet	-12.1768
呼び出し	-12.1772
▁AI	-12.1772
▁オレ	-12.1772
おっ	-12.1774
ランキング	-12.1778
▁mid	-12.1778
デュ	-12.1779
ハメ	-12.1779
▁receive	-12.1779
◆	-12.178
捗	-12.178
捕獲	-12.1781
刑務	-12.1781
ストーン	-12.1783
アマチュア	-12.1784
▁extensive	-12.1785
ier	-12.1785
▁Di	-12.1785
七夕	-12.1786
▁interact	-12.1787
dy	-12.1788
(>_<)	-12.1789
背筋	-12.1791
コーン	-12.1793
度々	-12.1793
めで	-12.1796
すんな	-12.1798
ないのかな	-12.1798
月経	-12.1799
ina	-12.1802
▁October	-12.1802
たわ	-12.1803
処女	-12.1804
如何に	-12.1805
るべし	-12.1811
▁chain	-12.1811
中高	-12.1813
統制	-12.1813
ドローン	-12.1814
慰め	-12.1817
ゆず	-12.1818
ちび	-12.1823
ですわ	-12.1827
ワイヤー	-12.1828
んだもん	-12.183
チュー	-12.1835
ホイール	-12.1835
▁construct	-12.1836
ユーモア	-12.1841
縁起	-12.1844
大腸	-12.1844
さよ	-12.1845
▁prime	-12.1846
はないだろう	-12.1847
ビス	-12.1848
忌	-12.1849
遠藤	-12.185
▁sent	-12.185
pl	-12.1852
ひざ	-12.1852
ストーカー	-12.1854
query	-12.1855
▁mental	-12.1856
RT	-12.1856
になりやす	-12.1857
因果	-12.1862
▁deal	-12.1865
タル	-12.1865
post	-12.1866
出逢	-12.1867
▁oil	-12.1869
詰	-12.1871
attr	-12.1873
つしか	-12.1873
世田谷	-12.1873
せられ	-12.1874
▁efficienc	-12.1877
いいのかな	-12.1877
柵	-12.1877
やってみたい	-12.1879
をつくって	-12.188
▁columns	-12.1881
total	-12.1881
たりするの	-12.1882
豊田	-12.1883
▁Am	-12.1884
ck	-12.189
パウダー	-12.1891
▁June	-12.1892
ディア	-12.1892
山中	-12.1892
down	-12.1893
▁secret	-12.1895
ny	-12.1896
取り消	-12.1897
▁ensur	-12.19
▁actions	-12.1903
▁capital	-12.1904
酵	-12.1905
ルーツ	-12.1906
ゼリー	-12.1907
嗅	-12.1908
kin	-12.191
つない	-12.191
ゴロゴロ	-12.191
▁external	-12.1911
▁赤	-12.1913
らく	-12.1914
金剛	-12.1914
リフト	-12.1917
一筋	-12.1918
どうなのか	-12.1919
午	-12.192
logging	-12.192
出迎え	-12.1922
ほんま	-12.1923
でもいいから	-12.1925
ps	-12.1925
とっくに	-12.1928
ニュアンス	-12.1929
▁Life	-12.1931
▁Bar	-12.1931
AF	-12.1932
▁北	-12.1932
ケージ	-12.1933
アクティブ	-12.1935
スティック	-12.1937
真田	-12.1937
まめ	-12.1938
年次	-12.1938
▁adapt	-12.1938
クーラー	-12.1939
ユース	-12.1941
縫い	-12.1944
▁November	-12.1944
安田	-12.1945
てん	-12.195
一軒	-12.1953
茶屋	-12.1953
スー	-12.1955
送付	-12.1956
▁High	-12.1956
英文	-12.1957
嶺	-12.1957
裏付け	-12.1959
▁trials	-12.1962
ger	-12.1963
鉄板	-12.1963
ままで	-12.1964
=[	-12.1966
に従い	-12.1966
▁一度	-12.197
プロポーズ	-12.197
炊き	-12.1971
悔や	-12.1971
▁sys	-12.1973
▁fire	-12.1973
精進	-12.1974
mb	-12.1974
IS	-12.1975
もちゃんと	-12.1975
▁consequence	-12.1975
造形	-12.1976
ロイ	-12.1977
ひかり	-12.1978
▁いくら	-12.198
引きず	-12.1981
バスト	-12.1982
くせ	-12.1983
リメイク	-12.1985
✨	-12.1986
尉	-12.1986
孔	-12.1987
撒	-12.1987
dataset	-12.1987
▁auto	-12.1988
寂	-12.1994
パール	-12.1996
〜	-12.1996
シェル	-12.1997
思い出せ	-12.1998
だぁ	-12.1998
フォード	-12.2
va	-12.2001
'))	-12.2003
自在	-12.2003
▁tasks	-12.2004
堪え	-12.2004
▁alpha	-12.2004
dimensional	-12.2006
▁border	-12.2007
▁Apollo	-12.2007
ウィン	-12.2008
アスリート	-12.2008
慈	-12.2009
▁promoter	-12.201
金魚	-12.2011
かんじ	-12.2012
幼馴染	-12.2012
ゆで	-12.2013
丸く	-12.2015
したよ	-12.2016
浮かび上が	-12.2016
千年	-12.2017
▁compute	-12.2022
岡崎	-12.2026
*)	-12.2027
▁Over	-12.2028
堵	-12.2029
ハイブリッド	-12.203
地方自治	-12.2034
をもち	-12.2035
▁recommend	-12.2036
二本	-12.204
let	-12.2041
はどうか	-12.2042
gave	-12.2043
余儀な	-12.2045
多大	-12.2045
モリ	-12.2049
▁everythin	-12.205
ヘル	-12.205
言い換え	-12.205
hi	-12.205
なんですけどね	-12.205
はとっても	-12.205
▁purpose	-12.2053
運輸	-12.2053
夢見	-12.2053
▁physician	-12.2054
wiki	-12.2055
▁books	-12.2055
▁recorded	-12.2055
温かく	-12.2055
アンダー	-12.2055
SC	-12.2056
琵	-12.2057
護衛	-12.2061
東急	-12.2062
▁primari	-12.2062
▁entry	-12.2065
バレンタイン	-12.2067
むので	-12.2069
アンコール	-12.2069
▁solid	-12.2069
取っ	-12.207
市街	-12.2073
三月	-12.2074
ゲージ	-12.2075
ジョブ	-12.2077
漁師	-12.2079
修羅	-12.2079
じゃないよ	-12.2081
▁engage	-12.2081
ベルギー	-12.2081
▁interpret	-12.2082
ちがう	-12.2083
野良	-12.2085
水中	-12.2087
▁OF	-12.209
聖地	-12.209
星野	-12.2091
っとした	-12.2091
items	-12.2091
うございます	-12.2094
三大	-12.2094
なってしまう	-12.2094
公民	-12.2095
下部	-12.2095
▁bias	-12.2095
▁smooth	-12.2095
Comment	-12.2096
▁placed	-12.2096
閉ま	-12.2097
んじゃね	-12.2097
マザー	-12.2098
逢	-12.2099
くなったら	-12.21
猶	-12.21
フィル	-12.2101
▁hold	-12.2102
というわけ	-12.2102
▁pay	-12.2103
▁‘	-12.2106
free	-12.2107
あらわれ	-12.2107
わかんない	-12.2108
っていこう	-12.2108
それでいい	-12.2109
まさ	-12.2109
tan	-12.2111
▁expressions	-12.2112
ならないと	-12.2112
▁formal	-12.2115
▁kill	-12.2116
ひまわり	-12.2116
TT	-12.2118
▁goals	-12.2118
▁removed	-12.2118
トウ	-12.212
").	-12.2121
ya	-12.2123
もんだ	-12.2123
あったと	-12.2123
▁monitor	-12.2123
とたん	-12.2126
context	-12.2126
めい	-12.2131
洗面	-12.2132
夏場	-12.2132
パッチ	-12.2132
ことなので	-12.2133
ぢ	-12.2134
渦	-12.2137
▁主人	-12.2138
ゎ	-12.2138
ばか	-12.2139
キル	-12.2139
▁Given	-12.2139
いるようで	-12.214
assertEqual	-12.2144
sen	-12.2145
)+	-12.2146
サポ	-12.2146
▁ask	-12.2148
セクハラ	-12.2148
祈願	-12.2149
クリック	-12.215
▁alter	-12.2153
にんにく	-12.2153
引き取	-12.2155
停め	-12.2155
ドキュメント	-12.2158
コメディ	-12.2158
▁arm	-12.2158
▁('	-12.216
our	-12.216
裁判官	-12.2164
ちょう	-12.2166
ないみたい	-12.2166
pp	-12.2166
挿	-12.2166
やってみた	-12.2166
▁strain	-12.2167
めぐって	-12.2167
cat	-12.2168
▁exchange	-12.2169
");	-12.2169
msg	-12.217
セールス	-12.217
▁西	-12.217
em	-12.2172
ah	-12.2172
ことだけ	-12.2177
いかもしれませんが	-12.2177
▁translation	-12.218
小児	-12.2182
▁categories	-12.219
「○○	-12.2191
法務	-12.2193
.........	-12.2193
地中	-12.2194
RC	-12.2195
ペイ	-12.2196
てしまいそう	-12.2198
changing	-12.2201
上京	-12.2202
blog	-12.2203
func	-12.2204
コンサルティング	-12.2206
そっか	-12.2207
▁chance	-12.2208
下回	-12.2208
シャープ	-12.2208
りますし	-12.2209
良か	-12.2209
未成年	-12.2211
リーダーシップ	-12.2211
インプラント	-12.2211
▁うん	-12.2212
後藤	-12.2212
ぜん	-12.2212
刻み	-12.2212
ゴジラ	-12.2213
▁hope	-12.222
傾斜	-12.2222
周波	-12.2222
きつく	-12.2222
ぶれ	-12.2226
▁con	-12.2228
カスタマイズ	-12.2231
久保	-12.2231
降ろ	-12.2232
keys	-12.2234
別名	-12.2234
ケチ	-12.2234
刷	-12.2235
源氏	-12.2236
'.	-12.2239
やってみる	-12.2239
ありがた	-12.2242
おでん	-12.2243
くさい	-12.2244
きのこ	-12.2245
ship	-12.2252
トコ	-12.2253
▁Today	-12.2254
カンボジア	-12.2255
なのよ	-12.2255
うっ	-12.2257
tended	-12.2258
冷やし	-12.2258
▁genomic	-12.2258
がいいの	-12.226
まとめる	-12.2261
ヘタ	-12.2261
▁Sun	-12.2264
悶	-12.2265
酷く	-12.2265
天神	-12.2265
市議会	-12.2266
いのではないかと	-12.2266
ないでしょ	-12.2267
六本木	-12.2269
引き締め	-12.2271
オル	-12.2272
うございました	-12.2276
んだぞ	-12.2278
▁resource	-12.2279
えっと	-12.2279
白石	-12.2282
▁returned	-12.2283
▁右	-12.2283
ご苦労	-12.2286
下し	-12.229
リンク	-12.2291
▁See	-12.2291
▁自	-12.2292
きてくれ	-12.2293
政務	-12.2295
▁male	-12.23
トレーダー	-12.2301
FP	-12.2302
討ち	-12.2302
睨	-12.2302
▁transfer	-12.2303
チョウ	-12.2305
▁Open	-12.2305
じゃないんだ	-12.2308
陰謀	-12.2309
MO	-12.231
▁unknown	-12.2312
差し込	-12.2314
特例	-12.2314
RS	-12.2315
えず	-12.2316
中田	-12.2316
大人しく	-12.2317
サーフィン	-12.2318
大山	-12.232
ise	-12.232
ばせ	-12.2324
スリー	-12.2324
▁Second	-12.2325
TOP	-12.2327
はありませんか	-12.2329
中部	-12.233
▁State	-12.2332
りますね	-12.2334
ほめ	-12.2334
ロッテ	-12.2338
position	-12.2342
なっていました	-12.2343
▁imagine	-12.2343
▁Great	-12.2343
▁package	-12.2344
Image	-12.2345
押し寄せ	-12.2346
やめる	-12.2347
height	-12.2347
▁Per	-12.2349
安藤	-12.2356
▁Web	-12.2361
▁meeting	-12.2362
あわ	-12.2362
lon	-12.2363
▁everyone	-12.2363
マリン	-12.2364
▁residue	-12.2364
滑ら	-12.2364
istic	-12.2365
▁controls	-12.2366
izing	-12.2367
サミット	-12.2367
レディ	-12.2371
ms	-12.2374
いっそ	-12.2379
靖国	-12.2381
ヘルメット	-12.2382
BC	-12.2382
▁家族	-12.2384
ってしまうので	-12.2385
▁reduc	-12.2386
びっくりする	-12.2386
勲	-12.2387
ブレンド	-12.2387
本校	-12.2389
い道	-12.2389
▁貴	-12.2389
賜	-12.2391
▁guideline	-12.2394
絡め	-12.2399
御礼	-12.24
中期	-12.2401
ek	-12.2402
TE	-12.2403
ヒル	-12.2406
僧侶	-12.2407
▁安倍	-12.2407
▁plays	-12.241
▁split	-12.241
giving	-12.241
▁regression	-12.2411
body	-12.2412
みやすい	-12.2415
iv	-12.2416
鍼灸	-12.2417
▁composition	-12.2417
泥棒	-12.2417
モール	-12.2419
バテ	-12.2419
▁liver	-12.242
出雲	-12.242
大都市	-12.2422
彼岸	-12.2422
どうしたらいい	-12.2423
De	-12.2423
ガリ	-12.2423
▁connected	-12.2427
▁Japanese	-12.2428
▁confidence	-12.2428
っていただ	-12.2428
かということを	-12.243
▁famili	-12.243
▁暑	-12.2431
リターン	-12.2431
リュック	-12.2434
ッタ	-12.2435
プロテイン	-12.2437
主任	-12.2439
ほしかった	-12.2439
society	-12.244
擁	-12.2441
ably	-12.2441
がつか	-12.2441
)\	-12.2441
になってしまうの	-12.2443
▁早く	-12.2444
リッチ	-12.2445
ロク	-12.2448
▁Windows	-12.245
▁affected	-12.245
膿	-12.2451
▁transport	-12.2451
twitter	-12.2451
瀬戸	-12.2454
▁spread	-12.2454
こともない	-12.2455
フラワー	-12.2458
▁govern	-12.2459
ところもある	-12.2461
ジョギング	-12.2462
真っ黒	-12.2462
▁California	-12.2463
[-	-12.2463
最寄り	-12.2463
きん	-12.2463
▁parser	-12.2464
カプセル	-12.2465
スケート	-12.2466
▁exploration	-12.2467
民事	-12.2467
海苔	-12.2469
▁office	-12.2469
サウナ	-12.2472
修士	-12.2472
といふ	-12.2474
stream	-12.2476
前方	-12.2476
▁precise	-12.2476
ってやつ	-12.2479
明後	-12.248
▁fine	-12.2482
力強く	-12.2482
▁dynamic	-12.2484
たけ	-12.2485
彫	-12.2486
Instead	-12.2486
book	-12.2487
ってるのか	-12.2488
サクサク	-12.2489
older	-12.249
近江	-12.2491
ノア	-12.2491
やさしく	-12.2492
▁Power	-12.2493
▁soon	-12.2493
▁participat	-12.2493
▁Value	-12.2494
やっ	-12.2495
▁velocity	-12.2495
ヘルニア	-12.2496
温も	-12.25
life	-12.25
ANA	-12.2501
ドリ	-12.2504
▁multiplication	-12.2506
▁church	-12.2506
エリ	-12.2508
空手	-12.2508
大塚	-12.251
▁Not	-12.2511
yl	-12.2511
稲荷	-12.2512
ウラ	-12.2513
なご	-12.2514
敦	-12.2516
セッティング	-12.2516
かなって	-12.2524
アダルト	-12.2526
務局	-12.2529
不意	-12.253
名人	-12.2531
まって	-12.2531
core	-12.2533
▁achiev	-12.2534
ピル	-12.2534
なるので	-12.2535
MI	-12.2535
高松	-12.2535
PTA	-12.2539
▁coding	-12.2539
immune	-12.2542
厚く	-12.2543
GET	-12.2544
新書	-12.2546
▁sensor	-12.2547
いいじゃん	-12.2548
ありえ	-12.2548
おけば	-12.2549
ator	-12.2549
▁extension	-12.2549
朽	-12.255
exp	-12.255
大津	-12.2551
横山	-12.2551
踏み切	-12.2555
ばい	-12.2555
二郎	-12.2556
めまい	-12.2557
委ね	-12.2557
ぶち	-12.2559
りかね	-12.256
侮	-12.2562
PDF	-12.2565
いたずら	-12.2566
コム	-12.2566
ドメイン	-12.2568
▁Model	-12.2568
アップロード	-12.2568
ないんだよ	-12.2569
治医	-12.257
配送	-12.257
アイツ	-12.2573
▁寒	-12.2573
HR	-12.2574
================	-12.2574
▁explanation	-12.2575
ボーイ	-12.2575
リソース	-12.2576
sim	-12.2576
トランス	-12.2576
急性	-12.2577
もあ	-12.2577
▁appearance	-12.2579
除け	-12.2581
長谷川	-12.2583
▁fun	-12.2584
ゥ	-12.2586
▁apparent	-12.2586
▁serum	-12.2586
下町	-12.2588
心掛け	-12.2589
スロット	-12.259
find	-12.259
捏	-12.259
プロモーション	-12.2592
いくらか	-12.2592
he	-12.2594
mat	-12.2594
▁differential	-12.2595
ベット	-12.2595
▁Apple	-12.2595
クーポン	-12.2597
テイスト	-12.2602
飯田	-12.2602
取ら	-12.2603
プロフェッショナル	-12.2606
▁subset	-12.2607
勉	-12.2608
▁rare	-12.2609
御所	-12.261
菓	-12.2614
CI	-12.2616
リベンジ	-12.2616
▁absence	-12.2617
weight	-12.2617
▁threshold	-12.2617
グレ	-12.2619
▁simulation	-12.262
してみてはいかが	-12.2621
合法	-12.2621
参画	-12.2621
▁Act	-12.2623
▁($	-12.2624
なりそう	-12.2626
オーブン	-12.2627
rm	-12.2627
たかが	-12.2627
)～	-12.2627
ラグ	-12.263
▁Ro	-12.263
▁Australian	-12.2631
大名	-12.2633
買い取り	-12.2635
はま	-12.2638
▁森	-12.2638
ぶどう	-12.264
宮古	-12.264
▁quite	-12.2641
斬り	-12.2642
DL	-12.2644
まとま	-12.2644
北斗	-12.2645
言い聞かせ	-12.2647
うなぎ	-12.2649
ファイナル	-12.2649
ボイス	-12.265
▁talk	-12.2651
=\	-12.2652
下山	-12.2652
ラウンジ	-12.2652
▁地元	-12.2652
ov	-12.2652
non	-12.2653
アナタ	-12.2656
safety	-12.2657
きみ	-12.2658
▁causes	-12.2658
日夜	-12.2661
HTML	-12.2662
とご	-12.2665
▁India	-12.2666
いろ	-12.2669
ディス	-12.2671
河原	-12.2673
ノーベル	-12.2674
タラ	-12.2674
▁いつ	-12.2675
▁mutation	-12.2677
サンドイッチ	-12.2677
三島	-12.2677
link	-12.2679
▁School	-12.2679
ておこう	-12.268
らないし	-12.268
▁board	-12.2682
なったのか	-12.2683
こまめ	-12.2689
о	-12.269
▁さあ	-12.269
▁magnitude	-12.2692
いおい	-12.2692
▁encourage	-12.2692
堕	-12.2693
▁implementation	-12.2696
やつは	-12.2697
......?	-12.2697
縛り	-12.2697
center	-12.2701
いのち	-12.2701
▁二	-12.2702
ファーム	-12.2703
ちっとも	-12.2704
}(	-12.2705
ふっ	-12.2706
あかん	-12.2708
▁percent	-12.2708
アシスト	-12.2708
ちょこっと	-12.2709
▁missing	-12.271
▁handle	-12.2712
テック	-12.2712
ig	-12.2712
コレステロール	-12.2713
▁更	-12.2713
チャー	-12.2717
▁Don	-12.2719
になりがち	-12.272
content	-12.2721
肺炎	-12.2724
▁青	-12.2725
枯	-12.2726
しようとし	-12.2727
sign	-12.2727
スイング	-12.2727
本田	-12.2729
るん	-12.273
pre	-12.273
すまん	-12.2731
▁mathematic	-12.2731
std	-12.2735
▁connections	-12.2736
▁Write	-12.2737
キュー	-12.2737
パンケーキ	-12.2738
▁>>>	-12.2739
持ち合わせ	-12.2741
競合	-12.2743
沸騰	-12.2743
▁student	-12.2745
大気	-12.2747
埋もれ	-12.2748
利き	-12.2751
んだって	-12.2752
GPS	-12.2752
振込	-12.2753
エイズ	-12.2753
きのう	-12.2754
▁vectors	-12.2762
haps	-12.2764
?"	-12.2764
ささやか	-12.2764
磁	-12.2764
一九	-12.2764
たばこ	-12.2764
▁bottom	-12.2765
チューブ	-12.2765
準決勝	-12.2769
鞭	-12.277
樽	-12.2771
纏	-12.2772
蒲	-12.2773
▁En	-12.2774
EN	-12.2775
付け加え	-12.2776
吹き出	-12.2777
▁犬	-12.2778
まだし	-12.278
healthy	-12.2781
キラ	-12.2781
しゅう	-12.2781
名古屋市	-12.2783
otherwise	-12.2784
こんだ	-12.2784
つぶやき	-12.2785
ウィンドウ	-12.2786
▁Dr	-12.2786
ee	-12.2786
枠組	-12.2787
マメ	-12.2787
搾	-12.2788
ネル	-12.2788
いら	-12.279
ガム	-12.2791
▁foundation	-12.2792
しっかりして	-12.2793
バルセロナ	-12.2795
▁delve	-12.2795
煎	-12.2796
いんですよね	-12.2796
▁investigate	-12.2797
カリスマ	-12.2797
転じ	-12.2797
カメ	-12.2797
お気	-12.2798
▁horizontal	-12.2798
grad	-12.28
▁polynomial	-12.2802
コリ	-12.2803
CL	-12.2805
▁argument	-12.2807
ドリーム	-12.2807
▼	-12.2808
▁substantial	-12.281
ちゅう	-12.2811
▁statistic	-12.2812
▁Add	-12.2812
読み返	-12.2812
▁Canada	-12.2816
▁son	-12.2816
....	-12.2818
若年	-12.2819
▁ゲーム	-12.2819
はないので	-12.282
ナナ	-12.2821
▁現代	-12.2822
▁structural	-12.2824
ポー	-12.2824
十七	-12.2825
飛び交	-12.2828
ソレ	-12.2829
リック	-12.2829
好まし	-12.2833
メント	-12.2833
照れ	-12.2834
▁ふと	-12.2835
しているわけ	-12.2835
らおう	-12.2836
mp	-12.2839
とおもいます	-12.2839
ham	-12.2841
アラサー	-12.2842
農産	-12.2843
あがっ	-12.2844
▁blocks	-12.2844
▁birth	-12.2845
ヒマ	-12.2846
乗り出	-12.2848
ivity	-12.2851
▁ultimate	-12.2851
ふれあい	-12.2852
▁gender	-12.2852
▁minimum	-12.2852
竹内	-12.2853
オイラ	-12.2857
ミク	-12.286
▁commercial	-12.2862
java	-12.2863
岡本	-12.2863
temp	-12.2865
切り出	-12.2866
インスタ	-12.2866
can	-12.2867
たことない	-12.2867
(`	-12.2868
pop	-12.287
si	-12.2873
広域	-12.2875
▁続	-12.2883
デスクトップ	-12.2883
quad	-12.2885
多岐	-12.2885
フィー	-12.2886
GL	-12.2887
ことですね	-12.2888
すま	-12.2889
公衆	-12.289
Int	-12.289
DM	-12.2893
ヴァー	-12.2894
▁assume	-12.2894
あや	-12.2895
▁isn	-12.2896
四角	-12.2897
ロボ	-12.29
examples	-12.2902
うれしく	-12.2904
おこし	-12.2906
▁profile	-12.2911
ナース	-12.2913
本拠	-12.2913
ギル	-12.2914
▁metal	-12.2914
ろん	-12.2916
TH	-12.2916
大雪	-12.2917
IR	-12.2919
▁Ka	-12.2919
締めくく	-12.292
▁UK	-12.2927
北上	-12.2927
繰り	-12.2927
スケ	-12.293
results	-12.2933
▁Specific	-12.2936
がないか	-12.2939
エクササイズ	-12.2939
サマー	-12.294
SMAP	-12.2945
ひさしぶり	-12.2945
controlled	-12.2946
Go	-12.2946
▁interview	-12.2947
NE	-12.295
触れ合	-12.2951
立候補	-12.2952
まことに	-12.2952
^)/	-12.2953
▁ever	-12.2953
しちゃいました	-12.2955
イチロー	-12.2955
すっごい	-12.2955
▁speak	-12.2956
大晦	-12.2956
▁hit	-12.2959
魅せ	-12.2959
クレンジング	-12.296
BBQ	-12.2961
わら	-12.2965
フォーマット	-12.2966
騎手	-12.2966
フレ	-12.2967
▁cut	-12.2968
でもよく	-12.2968
▁(-	-12.2969
くさ	-12.2969
たず	-12.2969
▁IN	-12.2971
桑	-12.2972
められ	-12.2973
▁chronic	-12.2973
よねぇ	-12.2975
なところで	-12.2975
不動産	-12.2975
フォーカス	-12.2976
DA	-12.2978
刺し	-12.298
▁一人	-12.2981
さわやか	-12.2983
All	-12.2983
サイバー	-12.2984
いいかな	-12.2984
りますよね	-12.2986
ニック	-12.2986
鷲	-12.2986
ミュージアム	-12.2986
ムシ	-12.2988
標識	-12.2989
▁completed	-12.2989
隔離	-12.299
かさず	-12.299
リュ	-12.299
▁career	-12.2995
泳ぎ	-12.2995
プロパティ	-12.2997
▁ア	-12.2998
東京大学	-12.2998
▁argue	-12.2999
▁statement	-12.2999
奏で	-12.2999
原田	-12.2999
たせる	-12.3
▁remained	-12.3
▁shift	-12.3004
辞典	-12.3006
淫	-12.3006
十六	-12.3008
%,	-12.3008
▁climate	-12.3008
ナイキ	-12.3009
追跡	-12.301
セーブ	-12.3011
first	-12.3013
荒川	-12.3013
リース	-12.3015
本塁	-12.3015
悦	-12.3017
ology	-12.3021
のあいだ	-12.3023
API	-12.3024
うそ	-12.3025
フェイス	-12.3027
のではないだろう	-12.3028
シュー	-12.303
▁bio	-12.3031
バトン	-12.3032
下地	-12.3033
リバウンド	-12.3034
外国語	-12.3037
内蔵	-12.304
小生	-12.304
フッ	-12.3041
るようなこと	-12.3043
ガールズ	-12.3044
インストラクター	-12.3044
▁survival	-12.3045
Pro	-12.3045
)"	-12.3045
むずかしい	-12.3046
れませんが	-12.3046
カズ	-12.3047
ダニ	-12.3051
りますか	-12.3054
パワハラ	-12.3055
▁repeated	-12.3055
戻れ	-12.3055
とうと	-12.3059
フィン	-12.306
たつ	-12.3061
ai	-12.3063
▁reports	-12.3063
▁skill	-12.3063
▁AD	-12.3064
▁charge	-12.3064
大蔵	-12.3065
ポット	-12.3066
そうなの	-12.3068
プレミア	-12.3069
あんま	-12.3073
▁category	-12.3073
建立	-12.3073
だもん	-12.3076
').	-12.3077
(^-^)	-12.3077
いまだ	-12.3079
▁draft	-12.3079
▁ほんと	-12.3079
パッド	-12.3079
ってみたり	-12.308
search	-12.308
アイルランド	-12.3081
テク	-12.3081
チャーシュー	-12.3081
▁clean	-12.3081
スニーカー	-12.3086
ステロイド	-12.3086
Co	-12.3086
百人	-12.3087
spec	-12.3087
▁refer	-12.3088
CK	-12.3089
おー	-12.3089
メロ	-12.3089
dependent	-12.3091
満月	-12.3092
Test	-12.3092
浸か	-12.3092
ロリ	-12.3093
▁interesting	-12.3094
じつ	-12.3097
▁NHK	-12.3099
小田原	-12.3102
目黒	-12.3103
リュー	-12.3103
守れ	-12.3105
▁summary	-12.3107
オリーブオイル	-12.3108
滅ぼ	-12.3108
流動	-12.311
response	-12.3113
いのだが	-12.3113
ピュア	-12.3116
慕	-12.3116
ガッ	-12.3117
▁latter	-12.3118
ino	-12.3119
あいにく	-12.312
we	-12.3124
▁Latin	-12.3124
水晶	-12.3124
石炭	-12.3125
わっ	-12.3126
よくわかる	-12.3127
篠	-12.3128
チー	-12.3128
ph	-12.3129
走り出	-12.3132
あお	-12.3132
MD	-12.3132
コナン	-12.3132
ノック	-12.3133
魚介	-12.3135
稜	-12.3139
ネイティブ	-12.3139
!!!」	-12.314
んど	-12.314
▁spot	-12.3143
カム	-12.3143
tree	-12.3144
さっと	-12.3144
イングランド	-12.3147
▁join	-12.3149
区切	-12.3151
オタ	-12.3152
born	-12.3153
ディレクトリ	-12.3155
さげ	-12.3157
宝塚	-12.3158
るよね	-12.3158
▁mutations	-12.316
▁帰り	-12.316
ans	-12.316
かわかりません	-12.3162
在学	-12.3163
ui	-12.3165
創価	-12.3165
傾げ	-12.3166
▁belief	-12.3167
event	-12.3169
ばっちり	-12.3171
やってお	-12.3172
馬券	-12.3173
mark	-12.3174
con	-12.3175
▁スマホ	-12.3176
▁fish	-12.3176
阪急	-12.3177
四つ	-12.3178
▁trust	-12.3178
交互	-12.3179
春日	-12.3181
クラスメイト	-12.3182
後遺	-12.3183
買い換え	-12.3184
ダイナミック	-12.3185
▁そりゃ	-12.3188
μ	-12.3189
tt	-12.3189
内田	-12.3192
たまご	-12.3193
ens	-12.3193
▁plane	-12.3194
▁expansion	-12.3195
食ら	-12.3195
たんですよ	-12.3195
ワイルド	-12.3196
▁playing	-12.3199
まろ	-12.32
待合	-12.3202
太刀	-12.3203
わざ	-12.3204
▁ぜひ	-12.3204
高木	-12.3205
河野	-12.3205
パズル	-12.3206
空母	-12.3209
産経	-12.321
▁幸	-12.3213
▁failed	-12.3213
ジャガイモ	-12.3214
アイスクリーム	-12.3215
トリック	-12.3215
▁≪	-12.3216
共生	-12.3217
php	-12.3219
カッ	-12.3219
あるんだけど	-12.3219
ばり	-12.322
曲がり	-12.322
仕え	-12.3222
ピア	-12.3224
目覚まし	-12.3229
メロディー	-12.3231
踏み入れ	-12.3232
なんでこんな	-12.3234
かぼちゃ	-12.3234
クラフト	-12.3235
乾か	-12.3235
らー	-12.3236
▁Australia	-12.3237
)、『	-12.3238
コーラス	-12.3238
ッチ	-12.3239
にゃん	-12.3239
すけ	-12.324
▁――	-12.3241
▁aircraft	-12.3242
はないけど	-12.3242
▁digital	-12.3243
瑞	-12.3245
▁party	-12.3246
}{\	-12.3247
まぶた	-12.3247
素晴らしく	-12.3249
CV	-12.3249
flow	-12.3251
こら	-12.3251
加算	-12.3253
合体	-12.3253
ind	-12.3253
玉子	-12.3254
柴田	-12.3255
▁両	-12.3257
▁dimensions	-12.3259
▁derivative	-12.3259
不眠	-12.326
いいんだけど	-12.3261
暮	-12.3262
▁secondary	-12.3262
めちゃめちゃ	-12.3262
新聞社	-12.3263
マイペース	-12.3263
脅か	-12.3264
いち早く	-12.3265
▁Red	-12.3268
ふだん	-12.3268
ったほうがいい	-12.3268
▁それだけ	-12.3271
思いつ	-12.3271
はいかがでしょう	-12.3272
んだっけ	-12.3272
ダンナ	-12.3275
▁theoretical	-12.3279
フック	-12.3283
++	-12.3285
さぞ	-12.3286
▁tradition	-12.3287
▁antibody	-12.3289
悪し	-12.3289
大小	-12.329
おはよう	-12.3292
デジ	-12.3293
グリップ	-12.3294
▁portion	-12.3294
ハンカチ	-12.3295
っか	-12.3295
モジュール	-12.3295
▁recogniz	-12.3299
尖閣	-12.33
剣道	-12.3301
掃	-12.3303
福音	-12.3303
ことがあって	-12.3305
プラチナ	-12.3305
防げ	-12.3306
ウェディング	-12.3308
文科	-12.3308
rt	-12.331
pe	-12.331
運送	-12.331
▁President	-12.331
▁interface	-12.3312
割り当て	-12.3312
むし	-12.3314
コーラ	-12.3315
オッサン	-12.3316
苦しく	-12.3317
になっちゃった	-12.3321
しかないの	-12.3322
ドラッグ	-12.3323
そうなんだ	-12.3324
ビーム	-12.3325
▁clusters	-12.3326
二番	-12.333
近鉄	-12.333
かったなぁ	-12.3331
噴火	-12.3331
みろ	-12.3332
フレンチ	-12.3333
涼しく	-12.3335
とてつもな	-12.3335
おいしそう	-12.3335
ft	-12.3337
マウント	-12.3338
旅客	-12.3339
▁具	-12.3339
キュート	-12.3339
▁radio	-12.3339
こな	-12.334
はてな	-12.3342
DIY	-12.3342
▁sensitivity	-12.3342
▁showing	-12.3343
さば	-12.3346
ブン	-12.3346
んだけどね	-12.3353
プロダクト	-12.3354
宮内	-12.3354
セレブ	-12.3355
いわく	-12.3356
女房	-12.3356
▁David	-12.3358
仮名	-12.3358
髄	-12.3359
bb	-12.3359
スッ	-12.336
マフラー	-12.336
ジャージ	-12.3362
旭川	-12.3363
川口	-12.3363
▁Mo	-12.3363
あるまい	-12.3364
▁ex	-12.3365
寝かせ	-12.3365
しゃべ	-12.3366
見失	-12.3366
mod	-12.3366
▁名前	-12.3367
フラッシュ	-12.3367
Item	-12.3367
天地	-12.337
ハリー	-12.337
リーズナブル	-12.3371
東芝	-12.3372
物凄	-12.3372
responses	-12.3377
県道	-12.3379
▁resolution	-12.3381
ウルトラ	-12.3381
村田	-12.3382
おとなしく	-12.3382
さまでした	-12.3385
▁north	-12.3386
ずら	-12.3387
arg	-12.3389
いまま	-12.3389
タケ	-12.3392
だそう	-12.3393
▁~	-12.3396
サーキット	-12.3396
はじめる	-12.3397
連ね	-12.3401
取り合	-12.3402
かかわらず	-12.3403
ようこそ	-12.3403
NT	-12.3404
▁Get	-12.3405
ぐる	-12.3407
シマ	-12.3407
diagnosis	-12.3408
畜	-12.3409
png	-12.3411
``	-12.3412
▁プロ	-12.3413
tf	-12.3414
くなかった	-12.3415
大金	-12.3416
盛岡	-12.3417
めった	-12.3418
痺れ	-12.3418
んじ	-12.3421
負けず	-12.3421
働か	-12.3421
交響	-12.3422
面会	-12.3423
▁album	-12.3425
イヤー	-12.3426
▁sort	-12.3427
なくす	-12.3427
▁toward	-12.3432
いいかもしれません	-12.3435
▁simultaneous	-12.3436
プッシュ	-12.3436
▁exciting	-12.3436
クリスタル	-12.3437
書き換え	-12.3438
▁rich	-12.3438
ライトアップ	-12.3439
取り締ま	-12.3442
コーチング	-12.3442
明石	-12.3442
▁south	-12.3443
(^^	-12.3445
ants	-12.3446
しきれ	-12.3447
ウイスキー	-12.3447
."""	-12.3447
ワタクシ	-12.3448
asked	-12.3448
▁incorporat	-12.3451
サマ	-12.3451
▁joint	-12.3453
いのかな	-12.3454
▁そ	-12.3455
▁Center	-12.3457
DD	-12.3458
うには	-12.3458
シルエット	-12.3458
備わ	-12.3458
糧	-12.3459
ラリー	-12.3461
多摩	-12.3463
順序	-12.3463
立法	-12.3463
▁日曜	-12.3463
教職員	-12.3463
けが	-12.3467
マヨネーズ	-12.3469
単体	-12.347
next	-12.347
うことになる	-12.3471
望め	-12.3473
人体	-12.3476
だったよ	-12.3478
▁debate	-12.3478
ペダル	-12.348
アルゼンチン	-12.348
ho	-12.3481
どうなっ	-12.3485
万年	-12.3485
弥生	-12.3488
KA	-12.349
MR	-12.3491
クルー	-12.3492
EA	-12.3494
▁green	-12.3495
バストアップ	-12.3497
Class	-12.3498
▁hundred	-12.3499
サッ	-12.35
活き	-12.35
▁cm	-12.3502
▁dry	-12.3502
苦しめ	-12.3502
ual	-12.3502
▁website	-12.3504
青色	-12.3505
投じ	-12.3505
▁transmission	-12.3506
act	-12.351
遥	-12.351
▁Indian	-12.3511
......?」	-12.3511
貯ま	-12.3511
ヒーリング	-12.3513
▁session	-12.3513
じみ	-12.3513
▁grid	-12.3516
天狗	-12.3519
フロー	-12.3521
▁House	-12.3522
GA	-12.3526
一眼	-12.3528
サイエンス	-12.3529
▁OR	-12.353
きたり	-12.3531
growing	-12.3533
削り	-12.3533
信州	-12.3533
づき	-12.3534
チャージ	-12.3534
鵜	-12.3534
きつけ	-12.3534
▁feeling	-12.3539
織り	-12.3541
賢明	-12.3541
uri	-12.3542
つり	-12.3543
▁prepared	-12.3545
ニット	-12.3546
りょう	-12.3546
羽目	-12.3547
コケ	-12.3547
天堂	-12.3551
▁gett	-12.3551
script	-12.3552
IV	-12.3553
役立て	-12.3553
ザン	-12.3553
いいや	-12.3556
▁marked	-12.3557
北方	-12.3561
よけ	-12.3562
イルミネーション	-12.3563
AD	-12.3563
リストラ	-12.3564
蛍光	-12.3564
property	-12.3568
いるのに	-12.3568
サングラス	-12.3569
にやら	-12.3571
一月	-12.3571
一概	-12.3573
切り取	-12.3575
ぶつかり	-12.3575
work	-12.3579
ロサンゼルス	-12.3579
'].	-12.358
てなかった	-12.3581
つかず	-12.3581
▁letter	-12.3582
▁tend	-12.3583
らぎ	-12.3583
▁nation	-12.3584
PL	-12.3585
ten	-12.3587
▁Art	-12.3589
むもの	-12.359
誤魔化	-12.359
刈	-12.3595
▁eye	-12.3596
ニッポン	-12.3597
にあた	-12.3598
▁institution	-12.3599
▁Such	-12.3601
軽井沢	-12.3601
ムカ	-12.3602
▁Just	-12.3602
▁facilitate	-12.3604
防ぎ	-12.3606
いうふうな	-12.3607
うし	-12.3607
羽生	-12.3615
ile	-12.3616
阿弥陀	-12.3618
心得	-12.3621
▁respond	-12.3621
一次	-12.3621
緩め	-12.3622
Box	-12.3624
西村	-12.3625
ICT	-12.3627
FR	-12.3628
▁binary	-12.3629
▁なに	-12.3629
ik	-12.3631
}_{	-12.3632
▁grow	-12.3633
ひげ	-12.3633
いませ	-12.3636
▁conserved	-12.3637
御用	-12.3638
▁bi	-12.3638
敵対	-12.3639
ティッシュ	-12.364
▁integrate	-12.3641
受か	-12.3643
叔母	-12.3646
nan	-12.3646
監修	-12.3647
ちょいと	-12.3648
▁Its	-12.365
ネーミング	-12.3652
の節	-12.3653
served	-12.3653
落し	-12.3653
お気に	-12.3656
近付	-12.3657
▁thinking	-12.3658
▁colors	-12.3658
fields	-12.3662
摩擦	-12.3663
▁River	-12.3664
わかってる	-12.3665
高卒	-12.3667
芽生え	-12.367
いっしょに	-12.3671
domains	-12.3672
ニング	-12.3673
馳せ	-12.3674
ベーコン	-12.3674
スクリプト	-12.3674
span	-12.3675
三井	-12.3676
フタ	-12.3676
ボル	-12.3676
page	-12.3679
オーストリア	-12.368
ae	-12.3685
device	-12.3687
八王子	-12.3687
ピーター	-12.3688
コミュ	-12.3692
きま	-12.3693
っちゃいます	-12.3694
▁thing	-12.3695
ドック	-12.3696
▁got	-12.3696
▁vitro	-12.3697
リュウ	-12.3698
天文	-12.3702
▁microarray	-12.3703
謹	-12.3707
▁Empire	-12.3708
▁advance	-12.3708
▁extent	-12.371
stability	-12.3711
プラザ	-12.3712
敷き	-12.3712
ボブ	-12.3713
足利	-12.3714
きたので	-12.3714
うかが	-12.3715
むね	-12.3716
薩摩	-12.3719
とおもう	-12.3719
アシスタント	-12.3719
トメ	-12.372
ok	-12.372
ut	-12.372
役職	-12.372
急行	-12.3721
For	-12.3722
工藤	-12.3723
なるのは	-12.3724
BI	-12.3725
イエロー	-12.3725
ペニス	-12.3726
▁determin	-12.3726
チック	-12.3726
▁若い	-12.3727
ini	-12.3728
▁Ha	-12.3728
弁護	-12.3731
カブ	-12.3733
ティン	-12.3733
エルフ	-12.3733
▁sector	-12.3733
まかせ	-12.3734
はやく	-12.3735
▁reverse	-12.3736
American	-12.3736
家畜	-12.3736
▁annual	-12.3738
縄文	-12.3743
みだ	-12.3743
boxes	-12.3746
るんじゃないか	-12.3746
というほど	-12.3746
▁drawing	-12.3747
▁polici	-12.3748
▁hair	-12.3749
▁平	-12.3751
さいたま	-12.3751
哀れ	-12.3752
▁stored	-12.3753
日の出	-12.3753
出回	-12.3756
テラ	-12.3756
おじ	-12.3756
証書	-12.3757
▁native	-12.3758
URL	-12.3758
▁Last	-12.3759
▁foreign	-12.376
んだったら	-12.376
▁alcohol	-12.3761
▁Conclusions	-12.3762
▁Analysis	-12.3763
▁Kingdom	-12.3764
カトリック	-12.3765
射撃	-12.3766
ブリッジ	-12.3766
▁sentence	-12.3767
NET	-12.3768
▁https	-12.377
▁phenotype	-12.377
わい	-12.377
いいのに	-12.377
レントゲン	-12.3772
▁dependent	-12.3778
▁Check	-12.3778
語り合	-12.3778
▁stable	-12.3779
ci	-12.3782
qui	-12.3783
未定	-12.3785
南京	-12.3785
▁prove	-12.3787
▁Understanding	-12.379
▁bone	-12.379
シンガー	-12.379
拭き	-12.3791
bi	-12.3792
こさん	-12.3795
ct	-12.3795
ワイド	-12.3796
んだけれど	-12.3797
ブラン	-12.3797
▁viral	-12.3798
fi	-12.3799
車椅子	-12.38
コス	-12.3803
▁feet	-12.3805
怒鳴	-12.3806
立川	-12.3807
メンテ	-12.3808
▁finish	-12.381
·	-12.3812
▁Thanks	-12.3813
▁WordPress	-12.3814
跳	-12.3815
というわけではありません	-12.3815
▁duration	-12.3815
インク	-12.3816
焦げ	-12.3816
▁round	-12.3816
▁ホント	-12.3818
▁val	-12.3821
柔	-12.3821
▁民主	-12.3822
コーディネート	-12.3827
HA	-12.3829
寄生	-12.383
かもしれないし	-12.383
なくなってき	-12.3833
ディフェンス	-12.3835
いんですが	-12.3835
Vol	-12.3836
▁night	-12.3837
part	-12.3842
繕	-12.3842
高島	-12.3842
▁ideal	-12.3844
なんじゃ	-12.3844
panish	-12.3844
名づけ	-12.3845
ップ	-12.3846
ONE	-12.3846
しそうに	-12.3847
ible	-12.3848
▁topics	-12.3848
ウー	-12.3848
ミャンマー	-12.385
ソル	-12.385
其の	-12.3852
アリーナ	-12.3852
利権	-12.3852
math	-12.3854
グレード	-12.3855
▁Discussion	-12.3855
買い取	-12.3856
▁どれ	-12.386
つかめ	-12.3861
してたの	-12.3862
クエ	-12.3864
土佐	-12.3866
long	-12.3867
金色	-12.3869
▁幼	-12.3869
マツ	-12.387
▁aim	-12.387
▁Central	-12.387
臼	-12.3871
アトリエ	-12.3872
くれぐれ	-12.3873
つゆ	-12.3878
コシ	-12.3881
ありますし	-12.3883
三昧	-12.3884
▁twice	-12.3884
そうだよ	-12.3889
ヨー	-12.3889
家系	-12.3892
▁equals	-12.3892
▁marker	-12.3893
包み込	-12.3893
順次	-12.3893
PCR	-12.3894
庄	-12.3896
DX	-12.3898
にしてい	-12.3898
mathr	-12.3899
温ま	-12.3901
離乳	-12.3902
▁sleep	-12.3904
▁spaces	-12.3904
▁sell	-12.3906
ene	-12.3906
東電	-12.3908
カノ	-12.3909
ハズレ	-12.391
▁Sea	-12.391
議事	-12.3912
▁audience	-12.3913
なんや	-12.3915
▁sex	-12.3916
▁Park	-12.3917
▁vehicle	-12.3919
もしか	-12.3922
返せ	-12.3923
フェラ	-12.3924
▁integral	-12.3925
message	-12.3926
少子化	-12.3928
▁religious	-12.3928
LC	-12.3928
おん	-12.3929
▁Recent	-12.393
スナック	-12.393
SB	-12.3931
▁tag	-12.3932
フランク	-12.3932
本堂	-12.3933
▁json	-12.3935
シアター	-12.3936
くだらない	-12.3936
カゴ	-12.3937
▁∀`)	-12.394
dynamics	-12.394
しびれ	-12.394
並木	-12.3943
大黒	-12.3945
になりながら	-12.3947
これはこれで	-12.3949
西川	-12.395
pproved	-12.395
▁inde	-12.3951
腹痛	-12.3951
本学	-12.3952
擦	-12.3952
▁El	-12.3952
レディース	-12.3953
▁election	-12.3954
▁余	-12.3954
ビラ	-12.3955
丸山	-12.3957
獣医	-12.3959
anything	-12.3959
なわけで	-12.3959
ユニ	-12.3961
BD	-12.3962
▁net	-12.3963
トリートメント	-12.3964
わからなくな	-12.3967
るだろ	-12.3968
皇太	-12.3968
こわい	-12.3971
▁noise	-12.3971
原子	-12.3975
二次世界大戦	-12.3976
ウォッチ	-12.3978
▁examination	-12.3979
かっこ	-12.398
結びつけ	-12.398
reached	-12.3981
電磁	-12.3983
インナー	-12.3985
▁limitations	-12.3986
精密	-12.3987
リカ	-12.3988
ギャ	-12.3989
インターン	-12.399
ロッド	-12.3993
吹奏楽	-12.3993
ランス	-12.3993
払え	-12.3995
▁明治	-12.3995
ケツ	-12.3997
暗黒	-12.3999
高野	-12.4
▁mm	-12.4003
てたけど	-12.4004
▁どうせ	-12.4007
伊東	-12.4008
gi	-12.4008
▁annotation	-12.4008
▁相変わら	-12.401
▁motif	-12.4011
だれか	-12.4014
▁spatial	-12.4014
リトル	-12.4016
むけ	-12.4016
モットー	-12.4018
cr	-12.4019
硬く	-12.402
▁oxygen	-12.4024
桜井	-12.4025
魔法使	-12.4026
bel	-12.4026
▁classification	-12.4027
ライブラリ	-12.4027
播磨	-12.4029
はそれなりに	-12.4029
▁income	-12.4033
▁``	-12.4033
スマ	-12.4034
モト	-12.4035
▁town	-12.4036
保安	-12.4036
▁emerg	-12.4038
▁signaling	-12.4038
ラテン	-12.4038
▁Tip	-12.404
[...]
